<pad>	0
<unk>	0
<s>	0
</s>	0
an	-0
▁t	-1
in	-2
▁n	-3
▁s	-4
▁a	-5
ang	-6
▁m	-7
▁i	-8
▁th	-9
on	-10
at	-11
▁p	-12
al	-13
er	-14
▁k	-15
▁na	-16
▁sa	-17
▁w	-18
▁b	-19
ag	-20
ing	-21
▁h	-22
ay	-23
▁the	-24
it	-25
▁ang	-26
ar	-27
▁ng	-28
ou	-29
▁l	-30
▁d	-31
re	-32
▁c	-33
en	-34
il	-35
as	-36
ak	-37
▁o	-38
▁an	-39
un	-40
▁g	-41
▁at	-42
is	-43
am	-44
▁it	-45
es	-46
▁to	-47
or	-48
▁f	-49
▁in	-50
ong	-51
▁and	-52
us	-53
ah	-54
▁is	-55
ed	-56
ga	-57
ap	-58
▁ay	-59
aw	-60
▁mga	-61
▁y	-62
▁of	-63
ul	-64
ab	-65
ro	-66
ig	-67
um	-68
▁that	-69
▁you	-70
ut	-71
el	-72
ik	-73
ad	-74
ic	-75
▁pag	-76
▁e	-77
▁wh	-78
le	-79
ot	-80
om	-81
ung	-82
ow	-83
▁ito	-84
ent	-85
et	-86
id	-87
ind	-88
im	-89
ol	-90
ion	-91
ve	-92
os	-93
▁re	-94
iy	-95
▁we	-96
▁be	-97
ver	-98
▁al	-99
▁(	-100
▁-	-101
▁on	-102
ir	-103
ter	-104
▁--	-105
▁ak	-106
ly	-107
▁mag	-108
▁isang	-109
▁nag	-110
ct	-111
indi	-112
▁ko	-113
▁this	-114
ere	-115
▁hindi	-116
ug	-117
ip	-118
oo	-119
ur	-120
▁nat	-121
ib	-122
▁kung	-123
up	-124
▁"	-125
▁st	-126
▁may	-127
▁mo	-128
ld	-129
out	-130
▁par	-131
▁nak	-132
ant	-133
ch	-134
ilang	-135
ce	-136
la	-137
▁so	-138
yon	-139
em	-140
▁r	-141
▁for	-142
ers	-143
▁ha	-144
ito	-145
ust	-146
▁do	-147
▁mak	-148
▁he	-149
uk	-150
▁ta	-151
▁they	-152
ila	-153
▁go	-154
▁ka	-155
and	-156
ala	-157
iya	-158
▁sh	-159
awa	-160
ya	-161
▁pro	-162
▁j	-163
se	-164
▁as	-165
yo	-166
anan	-167
aya	-168
ith	-169
▁ab	-170
▁kan	-171
▁pin	-172
op	-173
▁but	-174
▁ma	-175
▁pa	-176
est	-177
▁wor	-178
▁have	-179
▁are	-180
our	-181
▁was	-182
ub	-183
▁se	-184
uh	-185
use	-186
▁up	-187
▁ch	-188
ally	-189
▁with	-190
alak	-191
ist	-192
ita	-193
ould	-194
▁all	-195
▁can	-196
▁para	-197
ih	-198
th	-199
▁ne	-200
▁not	-201
ill	-202
st	-203
▁un	-204
ation	-205
▁bag	-206
▁about	-207
ht	-208
▁ako	-209
ahil	-210
▁mas	-211
▁or	-212
▁ar	-213
ome	-214
▁de	-215
▁mar	-216
ahat	-217
▁v	-218
▁my	-219
▁natin	-220
▁tr	-221
od	-222
▁ex	-223
▁me	-224
alag	-225
og	-226
ck	-227
▁what	-228
▁ib	-229
ayon	-230
."	-231
very	-232
to	-233
▁one	-234
▁lik	-235
ugh	-236
if	-237
ayo	-238
▁no	-239
ughter	-240
▁lahat	-241
▁pagk	-242
ity	-243
oun	-244
ell	-245
▁mal	-246
▁sin	-247
▁pang	-248
ess	-249
▁con	-250
▁kat	-251
laughter	-252
▁nam	-253
ula	-254
▁now	-255
▁lang	-256
▁dahil	-257
iw	-258
ight	-259
▁en	-260
▁pe	-261
yang	-262
▁com	-263
pak	-264
ari	-265
▁kn	-266
▁if	-267
▁kaya	-268
ect	-269
▁per	-270
ive	-271
▁1	-272
▁aking	-273
▁ngayon	-274
ain	-275
rom	-276
ook	-277
▁bec	-278
yong	-279
iv	-280
▁mat	-281
ans	-282
ear	-283
▁ba	-284
ud	-285
ure	-286
▁man	-287
▁there	-288
ok	-289
▁know	-290
▁like	-291
qu	-292
amang	-293
app	-294
▁our	-295
ate	-296
alang	-297
▁peop	-298
▁from	-299
▁sila	-300
her	-301
all	-302
ink	-303
▁ating	-304
▁people	-305
ort	-306
▁am	-307
awanan	-308
▁when	-309
▁nang	-310
▁bagay	-311
tawanan	-312
▁by	-313
▁would	-314
▁sal	-315
▁nito	-316
▁si	-317
▁kah	-318
▁who	-319
▁sp	-320
▁just	-321
ard	-322
ek	-323
ata	-324
ause	-325
▁kas	-326
ha	-327
▁im	-328
▁us	-329
▁tao	-330
▁here	-331
▁them	-332
▁some	-333
▁your	-334
alk	-335
ies	-336
ood	-337
▁think	-338
▁because	-339
ine	-340
aling	-341
ie	-342
reat	-343
▁thing	-344
ound	-345
▁kap	-346
▁out	-347
▁pan	-348
▁tayo	-349
uw	-350
und	-351
ous	-352
ayan	-353
▁kong	-354
▁want	-355
▁upang	-356
ci	-357
ahan	-358
▁isa	-359
▁2	-360
yan	-361
▁these	-362
00	-363
act	-364
▁il	-365
▁their	-366
aka	-367
de	-368
▁more	-369
amit	-370
ment	-371
▁inter	-372
ich	-373
ost	-374
▁ni	-375
ast	-376
▁had	-377
▁siya	-378
▁niya	-379
ano	-380
ens	-381
▁get	-382
▁alam	-383
unit	-384
▁don	-385
▁say	-386
▁dito	-387
▁going	-388
oh	-389
▁le	-390
▁act	-391
▁sab	-392
▁very	-393
aring	-394
ays	-395
ika	-396
▁pam	-397
▁mula	-398
ence	-399
uhay	-400
▁gin	-401
ide	-402
▁how	-403
abi	-404
int	-405
▁tim	-406
ama	-407
▁gr	-408
aman	-409
▁mah	-410
▁kanyang	-411
ple	-412
apat	-413
▁which	-414
▁kanilang	-415
oug	-416
▁cy	-417
▁sum	-418
tro	-419
▁te	-420
usto	-421
▁pero	-422
▁work	-423
isip	-424
▁see	-425
unt	-426
▁nila	-427
alik	-428
ult	-429
ungk	-430
▁tin	-431
▁look	-432
▁will	-433
▁world	-434
▁ngunit	-435
ely	-436
▁hal	-437
▁year	-438
ose	-439
▁ap	-440
art	-441
▁she	-442
lo	-443
pt	-444
bab	-445
▁bu	-446
asyon	-447
ilangan	-448
ami	-449
ili	-450
▁qu	-451
▁kar	-452
▁niy	-453
▁hum	-454
▁pags	-455
▁'	-456
ali	-457
ulat	-458
▁ted	-459
▁nags	-460
▁than	-461
▁ev	-462
▁ide	-463
▁nakak	-464
age	-465
per	-466
▁pl	-467
asan	-468
▁his	-469
▁mad	-470
▁every	-471
ually	-472
▁gusto	-473
▁bab	-474
▁pat	-475
agawa	-476
der	-477
ran	-478
uch	-479
▁ik	-480
itt	-481
▁br	-482
▁kal	-483
iging	-484
▁really	-485
▁ro	-486
▁pinak	-487
▁lamang	-488
res	-489
▁min	-490
▁iyon	-491
▁talk	-492
ish	-493
one	-494
▁mab	-495
▁tak	-496
lause	-497
amat	-498
alaga	-499
applause	-500
ions	-501
▁any	-502
▁gum	-503
▁way	-504
ra	-505
fer	-506
angg	-507
awin	-508
▁itong	-509
▁walang	-510
alakpak	-511
pap	-512
▁kin	-513
▁pers	-514
▁taon	-515
▁naman	-516
aan	-517
▁lum	-518
ungkol	-519
▁taong	-520
ds	-521
palakpak	-522
uc	-523
▁imp	-524
▁then	-525
▁could	-526
▁right	-527
▁actually	-528
apos	-529
ihin	-530
▁din	-531
▁her	-532
▁tul	-533
ating	-534
▁araw	-535
▁comp	-536
▁into	-537
palakpakan	-538
ry	-539
sa	-540
ble	-541
▁di	-542
▁ano	-543
▁map	-544
▁where	-545
eng	-546
idad	-547
▁kab	-548
aming	-549
ep	-550
▁were	-551
ase	-552
ber	-553
uro	-554
▁fe	-555
alan	-556
▁iba	-557
ayong	-558
▁ting	-559
▁kahit	-560
alaking	-561
ick	-562
ile	-563
ite	-564
▁ed	-565
▁wr	-566
undo	-567
▁time	-568
igit	-569
vert	-570
▁did	-571
oy	-572
ump	-573
▁tw	-574
ento	-575
ihan	-576
omet	-577
▁new	-578
ikita	-579
▁part	-580
orm	-581
ree	-582
rus	-583
abah	-584
ical	-585
▁gan	-586
▁buhay	-587
▁noong	-588
▁nating	-589
▁tungkol	-590
tat	-591
▁af	-592
hing	-593
▁dal	-594
▁sam	-595
▁great	-596
▁years	-597
..	-598
rim	-599
▁saan	-600
▁maging	-601
ll	-602
▁ip	-603
▁op	-604
▁baw	-605
▁sar	-606
▁siy	-607
▁sub	-608
▁been	-609
▁pinag	-610
are	-611
ject	-612
▁make	-613
▁well	-614
▁napak	-615
oob	-616
awan	-617
▁oth	-618
anong	-619
▁somet	-620
aro	-621
▁dis	-622
▁mor	-623
▁tag	-624
awang	-625
▁mundo	-626
▁kailangan	-627
ri	-628
so	-629
ago	-630
▁sm	-631
ough	-632
▁pap	-633
▁magk	-634
sel	-635
▁ad	-636
▁maa	-637
▁res	-638
▁much	-639
▁bawat	-640
▁those	-641
▁things	-642
ia	-643
ice	-644
imb	-645
▁fa	-646
▁um	-647
▁kom	-648
▁happ	-649
trovert	-650
iti	-651
oll	-652
ory	-653
▁em	-654
▁po	-655
▁has	-656
▁lib	-657
▁lif	-658
iwala	-659
▁even	-660
▁wala	-661
▁cyrus	-662
ore	-663
▁ag	-664
blem	-665
igay	-666
▁tat	-667
abang	-668
other	-669
▁start	-670
▁pinakam	-671
ian	-672
▁bah	-673
▁big	-674
▁dif	-675
▁pak	-676
▁sig	-677
▁niyo	-678
▁ibang	-679
ue	-680
▁cl	-681
▁most	-682
▁akong	-683
nan	-684
olog	-685
▁pre	-686
▁said	-687
▁problem	-688
con	-689
end	-690
itan	-691
▁good	-692
▁inyo	-693
▁gawin	-694
asa	-695
▁ac	-696
ents	-697
▁does	-698
▁nasa	-699
▁other	-700
▁bilang	-701
▁paraan	-702
be	-703
uha	-704
▁gu	-705
▁exp	-706
▁lar	-707
▁nar	-708
▁put	-709
▁two	-710
iling	-711
▁call	-712
▁life	-713
▁over	-714
▁pagl	-715
les	-716
▁sc	-717
▁mags	-718
▁tulad	-719
▁pagkak	-720
?"	-721
akit	-722
apag	-723
hang	-724
inal	-725
irst	-726
unan	-727
unod	-728
▁art	-729
▁need	-730
▁being	-731
▁first	-732
▁human	-733
alagang	-734
▁differ	-735
ach	-736
ara	-737
han	-738
ict	-739
vel	-740
▁nan	-741
▁rel	-742
abaho	-743
▁sabi	-744
ations	-745
▁iyong	-746
man	-747
row	-748
cess	-749
▁nin	-750
▁pos	-751
▁take	-752
▁moral	-753
ild	-754
ren	-755
vers	-756
▁bin	-757
▁fact	-758
▁iyan	-759
▁maraming	-760
ism	-761
ated	-762
▁day	-763
▁est	-764
▁him	-765
▁lab	-766
▁nya	-767
itong	-768
▁mean	-769
▁pagt	-770
▁person	-771
ame	-772
ary	-773
ics	-774
uri	-775
able	-776
ount	-777
usap	-778
uter	-779
▁dec	-780
▁gen	-781
▁rin	-782
▁sya	-783
▁show	-784
▁sabihin	-785
ody	-786
ool	-787
san	-788
▁el	-789
▁sy	-790
ikha	-791
▁bat	-792
▁eng	-793
▁why	-794
▁back	-795
▁iran	-796
▁loob	-797
▁chang	-798
▁paano	-799
▁tayong	-800
▁something	-801
xt	-802
agi	-803
anda	-804
cept	-805
▁got	-806
▁nap	-807
usyon	-808
▁cont	-809
▁ener	-810
▁ilang	-811
▁3	-812
amp	-813
ass	-814
day	-815
ors	-816
own	-817
▁20	-818
▁dr	-819
▁ok	-820
alit	-821
▁bel	-822
▁car	-823
iting	-824
ittle	-825
▁dapat	-826
▁little	-827
▁tingin	-828
▁salamat	-829
▁malaking	-830
ge	-831
ern	-832
ina	-833
uan	-834
▁bl	-835
▁ph	-836
awag	-837
ward	-838
▁bet	-839
▁spe	-840
▁vir	-841
ulang	-842
▁amer	-843
▁book	-844
▁nais	-845
alaman	-846
ortant	-847
▁kapag	-848
▁mayro	-849
ire	-850
uli	-851
line	-852
otoh	-853
▁app	-854
▁lot	-855
▁hack	-856
▁creat	-857
▁thank	-858
net	-859
▁pr	-860
ower	-861
▁nga	-862
aroon	-863
▁ever	-864
▁minut	-865
▁katotoh	-866
ful	-867
▁da	-868
▁ask	-869
ether	-870
▁bata	-871
ungaling	-872
▁maaring	-873
ff	-874
▁ke	-875
ipag	-876
▁let	-877
▁med	-878
▁ser	-879
ansin	-880
▁also	-881
▁tell	-882
agamit	-883
▁around	-884
▁halimb	-885
by	-886
esp	-887
ura	-888
ves	-889
▁co	-890
▁lo	-891
agan	-892
angk	-893
uhan	-894
ying	-895
▁sch	-896
▁sim	-897
▁tum	-898
▁tun	-899
▁come	-900
▁down	-901
▁only	-902
▁namin	-903
▁inyong	-904
▁pagiging	-905
▁different	-906
▁halimbawa	-907
▁important	-908
ord	-909
▁ob	-910
▁sci	-911
▁tot	-912
▁find	-913
▁kami	-914
▁quest	-915
▁habang	-916
alo	-917
sik	-918
alas	-919
▁kid	-920
▁thr	-921
▁isip	-922
▁buong	-923
▁gamit	-924
▁panan	-925
▁three	-926
iz	-927
isa	-928
arap	-929
ilan	-930
ress	-931
ugan	-932
▁inf	-933
▁str	-934
ilala	-935
ought	-936
▁akin	-937
▁salita	-938
▁school	-939
ces	-940
ance	-941
ideo	-942
ulit	-943
▁ind	-944
▁off	-945
▁san	-946
iisip	-947
nment	-948
▁ibig	-949
▁kind	-950
▁real	-951
▁higit	-952
riminal	-953
▁naging	-954
▁online	-955
▁through	-956
▁ginagawa	-957
▁katotohanan	-958
ne	-959
▁19	-960
body	-961
▁hin	-962
▁sol	-963
▁tal	-964
ulong	-965
▁gawa	-966
▁komp	-967
▁many	-968
▁summ	-969
aliksik	-970
▁sarili	-971
aba	-972
arch	-973
ater	-974
stem	-975
▁lub	-976
▁num	-977
▁rem	-978
alita	-979
thing	-980
▁after	-981
▁bakit	-982
▁makak	-983
▁panah	-984
▁dalawang	-985
▁6	-986
red	-987
▁uk	-988
ible	-989
▁bas	-990
ology	-991
▁gover	-992
▁ideya	-993
▁today	-994
▁system	-995
▁maaaring	-996
▁government	-997
50	-998
ado	-999
cer	-1000
emp	-1001
gan	-1002
urn	-1003
▁fl	-1004
alim	-1005
cial	-1006
iwan	-1007
oloh	-1008
▁bit	-1009
▁int	-1010
▁rep	-1011
angan	-1012
▁card	-1013
▁kayo	-1014
▁mong	-1015
▁nagk	-1016
▁nagp	-1017
▁tech	-1018
unayan	-1019
▁found	-1020
▁totoo	-1021
▁tunay	-1022
iniwala	-1023
▁should	-1024
▁silang	-1025
▁another	-1026
▁introvert	-1027
dig	-1028
ero	-1029
ious	-1030
ipas	-1031
iran	-1032
long	-1033
▁ent	-1034
▁kam	-1035
▁kum	-1036
▁pal	-1037
▁rec	-1038
▁run	-1039
asabi	-1040
▁mabut	-1041
▁bagong	-1042
▁happen	-1043
▁internet	-1044
▁makikita	-1045
amd	-1046
mus	-1047
oko	-1048
ris	-1049
uth	-1050
yay	-1051
ikal	-1052
▁aga	-1053
▁cal	-1054
▁col	-1055
▁ing	-1056
▁mus	-1057
igdig	-1058
▁cent	-1059
▁cour	-1060
▁exam	-1061
▁long	-1062
▁stud	-1063
alagay	-1064
▁child	-1065
▁hangg	-1066
▁never	-1067
▁virus	-1068
,"	-1069
sh	-1070
wn	-1071
ys	-1072
awak	-1073
ayos	-1074
lish	-1075
ting	-1076
▁kay	-1077
▁mom	-1078
▁web	-1079
alaki	-1080
▁gaya	-1081
▁lead	-1082
▁okay	-1083
▁ukol	-1084
andang	-1085
▁ninyo	-1086
▁tinat	-1087
▁madalas	-1088
na	-1089
te	-1090
ack	-1091
duk	-1092
iba	-1093
ders	-1094
ente	-1095
ters	-1096
ungo	-1097
unta	-1098
▁hel	-1099
▁mam	-1100
istem	-1101
▁atin	-1102
▁baba	-1103
▁feel	-1104
▁kids	-1105
▁pict	-1106
▁doing	-1107
▁example	-1108
▁marahil	-1109
▁picture	-1110
inungaling	-1111
bo	-1112
ka	-1113
▁4	-1114
lic	-1115
orn	-1116
▁10	-1117
▁30	-1118
irap	-1119
lear	-1120
ning	-1121
ving	-1122
yari	-1123
▁inc	-1124
▁nyo	-1125
▁pol	-1126
▁sil	-1127
▁uni	-1128
▁yun	-1129
usion	-1130
▁inst	-1131
▁ipin	-1132
▁nagl	-1133
▁nung	-1134
▁oras	-1135
▁rese	-1136
▁same	-1137
atapos	-1138
ically	-1139
▁techn	-1140
▁video	-1141
▁sistem	-1142
▁wanted	-1143
▁panahon	-1144
▁subalit	-1145
▁nakikita	-1146
▁research	-1147
ft	-1148
gr	-1149
gy	-1150
wa	-1151
we	-1152
▁fr	-1153
▁su	-1154
ands	-1155
aral	-1156
erno	-1157
inig	-1158
▁git	-1159
▁kak	-1160
▁liv	-1161
▁mer	-1162
▁pum	-1163
▁sup	-1164
▁sus	-1165
▁tek	-1166
▁sort	-1167
▁unders	-1168
▁mayroon	-1169
▁hanggang	-1170
▁talagang	-1171
tr	-1172
...	-1173
ark	-1174
ars	-1175
ert	-1176
eto	-1177
anga	-1178
ibig	-1179
self	-1180
ugar	-1181
ural	-1182
utan	-1183
▁kon	-1184
▁own	-1185
▁sur	-1186
▁tog	-1187
▁use	-1188
ungan	-1189
▁give	-1190
▁last	-1191
▁magb	-1192
▁panl	-1193
yayari	-1194
▁pamam	-1195
▁words	-1196
▁americ	-1197
▁artist	-1198
▁called	-1199
▁pagbab	-1200
▁larawan	-1201
▁thought	-1202
▁underst	-1203
▁together	-1204
▁pagkakata	-1205
wh	-1206
▁u	-1207
hal	-1208
ied	-1209
▁kw	-1210
▁ut	-1211
abas	-1212
asab	-1213
ider	-1214
iyon	-1215
▁bum	-1216
▁dum	-1217
▁far	-1218
▁hug	-1219
▁mil	-1220
▁nab	-1221
▁uri	-1222
ibang	-1223
▁chem	-1224
▁comm	-1225
▁didn	-1226
▁ikaw	-1227
▁mang	-1228
selves	-1229
▁belie	-1230
▁langu	-1231
▁nakal	-1232
▁point	-1233
ty	-1234
agp	-1235
ail	-1236
amb	-1237
idd	-1238
uct	-1239
ants	-1240
ways	-1241
▁inv	-1242
▁sak	-1243
angga	-1244
ather	-1245
▁anim	-1246
▁came	-1247
▁goby	-1248
▁karan	-1249
▁libro	-1250
▁might	-1251
ception	-1252
▁course	-1253
▁ganito	-1254
▁gumawa	-1255
▁marami	-1256
▁minsan	-1257
▁parang	-1258
▁probab	-1259
▁talaga	-1260
▁science	-1261
▁katunayan	-1262
az	-1263
,00	-1264
ily	-1265
upo	-1266
way	-1267
,000	-1268
atch	-1269
ayun	-1270
tern	-1271
tong	-1272
▁six	-1273
ected	-1274
imula	-1275
▁cons	-1276
▁educ	-1277
▁next	-1278
▁pagd	-1279
▁pagp	-1280
▁tila	-1281
▁exper	-1282
▁magic	-1283
▁speak	-1284
▁story	-1285
▁always	-1286
▁nakakat	-1287
▁gobyerno	-1288
▁magiging	-1289
eh	-1290
ew	-1291
ks	-1292
pl	-1293
uo	-1294
ye	-1295
era	-1296
iew	-1297
old	-1298
ten	-1299
tor	-1300
ual	-1301
una	-1302
ved	-1303
▁jo	-1304
aran	-1305
lang	-1306
uloy	-1307
▁eas	-1308
▁ika	-1309
▁kad	-1310
▁mod	-1311
▁nil	-1312
umpay	-1313
aganap	-1314
illion	-1315
▁comes	-1316
▁nakat	-1317
▁wrong	-1318
▁kanila	-1319
▁moment	-1320
▁sinabi	-1321
▁siyang	-1322
▁english	-1323
▁interest	-1324
▁pagkatapos	-1325
br	-1326
ng	-1327
yl	-1328
ira	-1329
uno	-1330
▁ca	-1331
fore	-1332
idyo	-1333
ismo	-1334
ular	-1335
▁sap	-1336
▁won	-1337
umang	-1338
ution	-1339
▁coal	-1340
▁lear	-1341
▁mata	-1342
▁nagb	-1343
▁lugar	-1344
▁whole	-1345
▁ginawa	-1346
bal	-1347
igh	-1348
ode	-1349
ons	-1350
oss	-1351
pek	-1352
▁kl	-1353
▁sw	-1354
aano	-1355
read	-1356
ulay	-1357
ulot	-1358
▁...	-1359
▁bar	-1360
▁ins	-1361
▁its	-1362
▁old	-1363
▁pla	-1364
▁sec	-1365
▁wom	-1366
aaral	-1367
ensya	-1368
ition	-1369
yuter	-1370
▁anak	-1371
▁idea	-1372
▁seem	-1373
▁stat	-1374
▁tekn	-1375
▁maybe	-1376
▁under	-1377
▁bahagi	-1378
▁better	-1379
▁kasama	-1380
▁pagpap	-1381
▁someone	-1382
▁started	-1383
▁talking	-1384
▁trabaho	-1385
ced	-1386
ins	-1387
str	-1388
emat	-1389
ense	-1390
hiya	-1391
ulan	-1392
usan	-1393
yone	-1394
▁dat	-1395
▁des	-1396
▁gag	-1397
▁too	-1398
adong	-1399
allow	-1400
ience	-1401
ivity	-1402
uring	-1403
▁cell	-1404
▁four	-1405
▁says	-1406
ibigay	-1407
ikipag	-1408
▁again	-1409
▁babae	-1410
▁brain	-1411
▁count	-1412
▁smile	-1413
▁times	-1414
▁truth	-1415
▁cancer	-1416
▁change	-1417
▁ingles	-1418
▁nagpap	-1419
▁sistema	-1420
▁tingnan	-1421
▁language	-1422
▁question	-1423
▁technology	-1424
ss	-1425
agd	-1426
ank	-1427
cin	-1428
ony	-1429
ukl	-1430
ulo	-1431
yal	-1432
yar	-1433
▁hy	-1434
aliz	-1435
talk	-1436
udyo	-1437
▁air	-1438
▁diy	-1439
▁end	-1440
ahang	-1441
akita	-1442
ayang	-1443
iddle	-1444
redit	-1445
▁apat	-1446
▁code	-1447
▁help	-1448
▁love	-1449
▁mali	-1450
▁naka	-1451
▁pagb	-1452
▁plan	-1453
▁play	-1454
▁utak	-1455
▁yung	-1456
aralan	-1457
▁trick	-1458
▁middle	-1459
▁sining	-1460
▁tanong	-1461
▁tatlong	-1462
▁personal	-1463
▁teknoloh	-1464
▁extrovert	-1465
▁kompyuter	-1466
▁tinatawag	-1467
cy	-1468
ace	-1469
ape	-1470
ium	-1471
ugn	-1472
ury	-1473
ilis	-1474
ilos	-1475
ness	-1476
syon	-1477
▁bal	-1478
▁deb	-1479
▁det	-1480
▁giv	-1481
▁ina	-1482
▁lim	-1483
▁try	-1484
isyon	-1485
urity	-1486
▁bago	-1487
▁bans	-1488
▁cult	-1489
▁doon	-1490
▁foll	-1491
▁nagt	-1492
▁prop	-1493
▁resp	-1494
anggap	-1495
ulugan	-1496
▁natut	-1497
▁organ	-1498
▁power	-1499
▁teach	-1500
▁unang	-1501
▁partic	-1502
▁project	-1503
▁tedtalk	-1504
▁children	-1505
▁probably	-1506
▁problema	-1507
▁education	-1508
▁nakalipas	-1509
▁everything	-1510
ta	-1511
aga	-1512
ath	-1513
ial	-1514
ign	-1515
ven	-1516
▁bi	-1517
agay	-1518
ever	-1519
iyak	-1520
ures	-1521
▁acc	-1522
▁ago	-1523
▁god	-1524
▁hen	-1525
▁kuw	-1526
▁met	-1527
▁muk	-1528
▁pab	-1529
▁pus	-1530
oloko	-1531
unawa	-1532
▁five	-1533
▁head	-1534
▁imag	-1535
▁mind	-1536
▁pass	-1537
▁poll	-1538
▁pret	-1539
▁read	-1540
▁tama	-1541
▁polit	-1542
▁secon	-1543
▁talks	-1544
▁batang	-1545
▁credit	-1546
▁fusion	-1547
▁maaari	-1548
▁daigdig	-1549
co	-1550
sw	-1551
▁9	-1552
bre	-1553
els	-1554
hip	-1555
kat	-1556
ric	-1557
igil	-1558
iter	-1559
reen	-1560
usay	-1561
ween	-1562
▁dak	-1563
▁dem	-1564
▁esp	-1565
▁kag	-1566
▁nah	-1567
▁pah	-1568
▁pas	-1569
▁sad	-1570
▁una	-1571
agong	-1572
ility	-1573
ional	-1574
ities	-1575
iyang	-1576
▁amaz	-1577
▁eduk	-1578
▁home	-1579
▁room	-1580
▁test	-1581
▁turn	-1582
agitan	-1583
▁books	-1584
▁doesn	-1585
▁gener	-1586
▁means	-1587
▁often	-1588
▁still	-1589
▁while	-1590
▁comple	-1591
▁isipin	-1592
▁nilang	-1593
▁result	-1594
▁siguro	-1595
ilangang	-1596
▁between	-1597
▁subject	-1598
▁univers	-1599
▁understand	-1600
di	-1601
ais	-1602
ino	-1603
ner	-1604
oup	-1605
ull	-1606
▁er	-1607
▁pw	-1608
▁sk	-1609
agal	-1610
agat	-1611
alth	-1612
apit	-1613
aysa	-1614
bers	-1615
gawa	-1616
land	-1617
orya	-1618
usin	-1619
ware	-1620
▁bes	-1621
▁few	-1622
▁glo	-1623
▁sas	-1624
▁suc	-1625
▁val	-1626
cinog	-1627
▁answ	-1628
▁best	-1629
▁done	-1630
▁hard	-1631
▁heto	-1632
▁live	-1633
▁made	-1634
▁magt	-1635
▁nagm	-1636
▁poss	-1637
▁prot	-1638
▁sana	-1639
amihan	-1640
▁bahay	-1641
▁decid	-1642
▁kanya	-1643
▁kaysa	-1644
▁kulay	-1645
▁learn	-1646
▁lubos	-1647
▁quite	-1648
▁sangk	-1649
▁super	-1650
asabing	-1651
▁energy	-1652
▁minuto	-1653
▁pagsus	-1654
▁anumang	-1655
▁gagawin	-1656
▁chemical	-1657
▁enerhiya	-1658
▁edukasyon	-1659
go	-1660
ko	-1661
ibo	-1662
pot	-1663
▁oo	-1664
cent	-1665
lind	-1666
ling	-1667
lock	-1668
ross	-1669
trol	-1670
▁att	-1671
▁bad	-1672
▁ear	-1673
▁reg	-1674
alala	-1675
amdam	-1676
apang	-1677
ately	-1678
uture	-1679
▁bang	-1680
▁hang	-1681
▁hist	-1682
▁ilan	-1683
▁list	-1684
▁math	-1685
▁move	-1686
▁nagd	-1687
▁pres	-1688
▁side	-1689
▁went	-1690
ertain	-1691
▁bidyo	-1692
▁place	-1693
▁health	-1694
▁pretty	-1695
▁kahanga	-1696
▁million	-1697
▁carcinog	-1698
▁computer	-1699
▁mabuting	-1700
▁mahalaga	-1701
▁karamihan	-1702
▁pagkakataon	-1703
▁pamamagitan	-1704
oc	-1705
ph	-1706
ake	-1707
aki	-1708
ede	-1709
ger	-1710
ork	-1711
shm	-1712
▁25	-1713
▁cr	-1714
▁fy	-1715
akbo	-1716
anta	-1717
asok	-1718
elon	-1719
ines	-1720
ylon	-1721
▁200	-1722
▁cap	-1723
▁fun	-1724
▁scr	-1725
▁unt	-1726
irang	-1727
▁high	-1728
▁kaka	-1729
▁news	-1730
▁prod	-1731
▁prof	-1732
▁such	-1733
aharap	-1734
elonya	-1735
▁anong	-1736
▁bansa	-1737
▁beses	-1738
▁cyber	-1739
▁maari	-1740
▁manan	-1741
▁meron	-1742
▁narar	-1743
▁trans	-1744
▁watch	-1745
▁before	-1746
▁follow	-1747
▁future	-1748
▁marshm	-1749
▁nagtat	-1750
▁naisip	-1751
▁pollut	-1752
▁america	-1753
▁dahilan	-1754
▁fyusyon	-1755
▁hackers	-1756
▁looking	-1757
▁palagay	-1758
▁dakilang	-1759
▁everyone	-1760
▁ganitong	-1761
▁salamang	-1762
▁sariling	-1763
isinungaling	-1764
▁marshmallow	-1765
av	-1766
ex	-1767
yp	-1768
eah	-1769
got	-1770
irl	-1771
led	-1772
rat	-1773
ron	-1774
ues	-1775
uss	-1776
yes	-1777
▁50	-1778
▁sl	-1779
akot	-1780
alig	-1781
alis	-1782
ange	-1783
apan	-1784
hain	-1785
ings	-1786
▁bot	-1787
▁def	-1788
▁fam	-1789
▁lea	-1790
▁mis	-1791
▁neg	-1792
▁stu	-1793
▁sul	-1794
▁tah	-1795
▁war	-1796
itang	-1797
music	-1798
uling	-1799
▁ayon	-1800
▁food	-1801
▁less	-1802
▁pagh	-1803
▁true	-1804
▁yeah	-1805
anging	-1806
linder	-1807
▁group	-1808
▁halos	-1809
▁hudyo	-1810
▁ideas	-1811
▁mismo	-1812
▁sense	-1813
▁women	-1814
▁become	-1815
▁global	-1816
▁indust	-1817
▁kailan	-1818
▁wonder	-1819
▁babylon	-1820
▁believe	-1821
▁pananaw	-1822
▁process	-1823
▁success	-1824
▁susunod	-1825
▁creative	-1826
▁criminal	-1827
▁cylinder	-1828
▁dumating	-1829
▁nagiging	-1830
▁deception	-1831
▁magkaroon	-1832
▁questions	-1833
▁interesting	-1834
ke	-1835
zz	-1836
▁5	-1837
ahe	-1838
elf	-1839
gin	-1840
iel	-1841
lik	-1842
lim	-1843
uot	-1844
alat	-1845
ians	-1846
imes	-1847
mous	-1848
uhin	-1849
▁che	-1850
▁cur	-1851
▁fin	-1852
▁fri	-1853
▁ice	-1854
▁lie	-1855
▁net	-1856
▁sit	-1857
▁squ	-1858
▁tem	-1859
ahing	-1860
ember	-1861
ences	-1862
ikang	-1863
isang	-1864
itten	-1865
unang	-1866
velop	-1867
wards	-1868
▁girl	-1869
▁grow	-1870
▁huge	-1871
▁keep	-1872
▁meet	-1873
▁noon	-1874
▁sing	-1875
▁view	-1876
ahanap	-1877
itting	-1878
iwanag	-1879
▁aming	-1880
▁anony	-1881
▁digit	-1882
▁kamay	-1883
▁stand	-1884
▁thous	-1885
▁tiyak	-1886
▁contin	-1887
▁dalawa	-1888
▁kwento	-1889
▁magkak	-1890
▁makita	-1891
▁nakita	-1892
▁pinaka	-1893
▁rather	-1894
▁simple	-1895
▁decided	-1896
▁develop	-1897
▁malaman	-1898
▁milyong	-1899
▁minutes	-1900
▁paaralan	-1901
▁anonymous	-1902
▁babelonya	-1903
▁karanasan	-1904
▁pinakamah	-1905
▁introverts	-1906
▁themselves	-1907
cul	-1908
ift	-1909
ipt	-1910
iro	-1911
lam	-1912
ots	-1913
ses	-1914
vir	-1915
yek	-1916
▁16	-1917
▁ge	-1918
▁ts	-1919
ason	-1920
ayag	-1921
ices	-1922
iday	-1923
ikat	-1924
rime	-1925
uman	-1926
unti	-1927
▁add	-1928
▁cor	-1929
▁eff	-1930
▁hyd	-1931
▁lup	-1932
▁nas	-1933
▁pub	-1934
▁tid	-1935
▁typ	-1936
apags	-1937
araan	-1938
aysay	-1939
ively	-1940
iwang	-1941
ounds	-1942
urang	-1943
vious	-1944
▁able	-1945
▁days	-1946
▁else	-1947
▁epek	-1948
▁hand	-1949
▁itin	-1950
▁open	-1951
▁pati	-1952
▁perf	-1953
▁sent	-1954
▁sino	-1955
▁taga	-1956
alabas	-1957
amatay	-1958
ilikha	-1959
pakita	-1960
unidad	-1961
▁asked	-1962
▁clear	-1963
▁diyos	-1964
▁gayon	-1965
▁gitna	-1966
▁grand	-1967
▁kakay	-1968
▁katan	-1969
▁lives	-1970
▁mukha	-1971
▁natat	-1972
▁state	-1973
▁syang	-1974
▁tinut	-1975
intindi	-1976
▁across	-1977
▁gulang	-1978
▁lalaki	-1979
▁limang	-1980
▁mabuti	-1981
▁number	-1982
▁pagtat	-1983
▁proyek	-1984
▁silind	-1985
▁titing	-1986
▁digital	-1987
▁pagkain	-1988
▁percent	-1989
▁mayroong	-1990
▁security	-1991
▁moralidad	-1992
▁nagsimula	-1993
▁kailangang	-1994
▁naniniwala	-1995
▁pollutants	-1996
▁university	-1997
ma	-1998
ash	-1999
bel	-2000
ird	-2001
lat	-2002
tas	-2003
abaw	-2004
araw	-2005
ared	-2006
gest	-2007
ited	-2008
itiz	-2009
lean	-2010
oney	-2011
ukoy	-2012
uwag	-2013
▁201	-2014
▁buk	-2015
▁buw	-2016
▁guy	-2017
▁har	-2018
▁job	-2019
▁kun	-2020
▁maw	-2021
▁mon	-2022
▁pay	-2023
▁pop	-2024
▁tom	-2025
▁tuw	-2026
ahala	-2027
angah	-2028
ellow	-2029
imate	-2030
▁case	-2031
▁eyes	-2032
▁guys	-2033
▁kult	-2034
▁once	-2035
▁oper	-2036
▁opin	-2037
▁reak	-2038
▁seen	-2039
▁used	-2040
▁wall	-2041
▁wika	-2042
alized	-2043
ibigan	-2044
musika	-2045
rabaho	-2046
▁aklat	-2047
▁build	-2048
▁citiz	-2049
▁gayun	-2050
▁grupo	-2051
▁kasag	-2052
▁known	-2053
▁lider	-2054
▁makat	-2055
▁ngang	-2056
▁paint	-2057
▁using	-2058
▁cyberc	-2059
▁marduk	-2060
▁nitong	-2061
▁pagsas	-2062
▁saying	-2063
▁second	-2064
▁summer	-2065
▁certain	-2066
▁maganda	-2067
▁mahirap	-2068
▁nalaman	-2069
▁pagitan	-2070
▁pagkaka	-2071
▁summari	-2072
▁writing	-2073
▁anything	-2074
▁happened	-2075
▁madaling	-2076
▁nangyari	-2077
▁silindro	-2078
▁kahulugan	-2079
▁pagbabago	-2080
▁panloloko	-2081
▁sometimes	-2082
▁creativity	-2083
sy	-2084
bay	-2085
eta	-2086
gle	-2087
hin	-2088
ize	-2089
med	-2090
min	-2091
que	-2092
rop	-2093
▁ek	-2094
abot	-2095
ahin	-2096
alay	-2097
ayaw	-2098
cing	-2099
iban	-2100
ides	-2101
ific	-2102
nang	-2103
site	-2104
ster	-2105
▁cre	-2106
▁eto	-2107
▁ext	-2108
▁fig	-2109
▁gam	-2110
▁ham	-2111
▁hon	-2112
▁kil	-2113
▁ple	-2114
▁ter	-2115
▁top	-2116
▁tub	-2117
▁uma	-2118
▁vis	-2119
▁yan	-2120
amali	-2121
anger	-2122
ayaan	-2123
empre	-2124
illed	-2125
istan	-2126
viron	-2127
▁away	-2128
▁bill	-2129
▁camp	-2130
▁cost	-2131
▁fore	-2132
▁goal	-2133
▁isin	-2134
▁left	-2135
▁lies	-2136
▁magp	-2137
▁mais	-2138
▁manl	-2139
▁name	-2140
▁nand	-2141
▁pamb	-2142
▁sign	-2143
▁told	-2144
▁walk	-2145
▁halip	-2146
▁happy	-2147
▁heard	-2148
▁mamam	-2149
▁nakab	-2150
▁napag	-2151
▁napap	-2152
▁progr	-2153
▁tatlo	-2154
ahalaga	-2155
amangha	-2156
olution	-2157
unahing	-2158
version	-2159
▁engine	-2160
▁enough	-2161
▁hacker	-2162
▁likely	-2163
▁numero	-2164
▁produk	-2165
▁social	-2166
ormation	-2167
▁complet	-2168
▁culture	-2169
▁environ	-2170
▁estorya	-2171
▁iniisip	-2172
▁katawan	-2173
▁natural	-2174
▁website	-2175
▁whether	-2176
▁magaling	-2177
▁mathemat	-2178
▁possible	-2179
▁remember	-2180
▁sinasabi	-2181
▁tedtalks	-2182
▁ginagamit	-2183
▁nakakatuw	-2184
▁pakikipag	-2185
▁particular	-2186
▁environment	-2187
▁pangunahing	-2188
▁teknolohiya	-2189
!"	-2190
30	-2191
ac	-2192
ox	-2193
ze	-2194
aph	-2195
ats	-2196
bol	-2197
eks	-2198
elo	-2199
eno	-2200
ius	-2201
let	-2202
uku	-2203
▁li	-2204
▁mt	-2205
alin	-2206
ante	-2207
anya	-2208
arac	-2209
dern	-2210
igid	-2211
init	-2212
lack	-2213
lect	-2214
pris	-2215
rowd	-2216
rypt	-2217
sych	-2218
ubuk	-2219
uran	-2220
zzar	-2221
▁asp	-2222
▁ass	-2223
▁aud	-2224
▁bro	-2225
▁fre	-2226
▁jew	-2227
▁lip	-2228
▁pet	-2229
▁red	-2230
▁sle	-2231
▁tip	-2232
▁tug	-2233
▁yet	-2234
adala	-2235
agkat	-2236
along	-2237
arian	-2238
ering	-2239
icken	-2240
iforn	-2241
uming	-2242
▁arab	-2243
▁bank	-2244
▁blog	-2245
▁city	-2246
▁conn	-2247
▁dist	-2248
▁each	-2249
▁form	-2250
▁goes	-2251
▁gore	-2252
▁kabu	-2253
▁lalo	-2254
▁magl	-2255
▁mult	-2256
▁pagg	-2257
▁pagm	-2258
▁puno	-2259
▁self	-2260
▁shak	-2261
▁text	-2262
▁took	-2263
asunod	-2264
unting	-2265
▁buwan	-2266
▁exact	-2267
▁given	-2268
▁harap	-2269
▁kasal	-2270
▁level	-2271
▁manok	-2272
▁matat	-2273
▁media	-2274
▁money	-2275
▁night	-2276
▁psych	-2277
▁seems	-2278
▁siglo	-2279
▁until	-2280
▁water	-2281
atauhan	-2282
aysayan	-2283
ifornia	-2284
trabaho	-2285
▁coming	-2286
▁comput	-2287
▁debate	-2288
▁having	-2289
▁ilalim	-2290
▁imporm	-2291
▁kababa	-2292
▁katang	-2293
▁libong	-2294
▁magtat	-2295
▁making	-2296
▁modern	-2297
▁nagpas	-2298
▁naming	-2299
▁object	-2300
▁pagkam	-2301
▁proses	-2302
▁reason	-2303
▁report	-2304
▁script	-2305
▁amazing	-2306
▁chicken	-2307
▁getting	-2308
▁history	-2309
▁imagine	-2310
▁ipakita	-2311
▁lubhang	-2312
▁nothing	-2313
▁sadyang	-2314
▁without	-2315
▁working	-2316
▁kaibigan	-2317
▁movement	-2318
▁paglikha	-2319
▁tagumpay	-2320
▁komunidad	-2321
▁california	-2322
▁experience	-2323
▁nangyayari	-2324
▁paniniwala	-2325
▁carcinogens	-2326
▁sangkatauhan	-2327
".	-2328
do	-2329
no	-2330
yn	-2331
▁z	-2332
ags	-2333
ait	-2334
any	-2335
com	-2336
ele	-2337
ety	-2338
gen	-2339
ise	-2340
lud	-2341
mat	-2342
the	-2343
uto	-2344
▁oh	-2345
abut	-2346
alam	-2347
alar	-2348
atay	-2349
atin	-2350
ilin	-2351
imik	-2352
ized	-2353
onom	-2354
port	-2355
ulad	-2356
▁adm	-2357
▁adv	-2358
▁ann	-2359
▁dad	-2360
▁dan	-2361
▁del	-2362
▁dev	-2363
▁dol	-2364
▁fav	-2365
▁kaw	-2366
▁lin	-2367
▁nal	-2368
▁ref	-2369
▁rev	-2370
▁sat	-2371
▁saw	-2372
agang	-2373
asama	-2374
ative	-2375
being	-2376
ently	-2377
hanga	-2378
hindi	-2379
ibong	-2380
oogle	-2381
ories	-2382
ossum	-2383
ource	-2384
ukuha	-2385
▁buod	-2386
▁care	-2387
▁emot	-2388
▁gust	-2389
▁huli	-2390
▁king	-2391
▁knew	-2392
▁kury	-2393
▁mark	-2394
▁nagh	-2395
▁pors	-2396
▁rate	-2397
▁rest	-2398
▁stop	-2399
▁wasn	-2400
action	-2401
andaan	-2402
araang	-2403
ilidad	-2404
illian	-2405
usulat	-2406
▁alone	-2407
▁gaano	-2408
▁image	-2409
▁intro	-2410
▁layun	-2411
▁nakap	-2412
▁ngiti	-2413
▁pamil	-2414
▁pangk	-2415
▁pareh	-2416
▁sapat	-2417
▁sasab	-2418
▁seven	-2419
▁tapos	-2420
▁worth	-2421
agumpay	-2422
amdaman	-2423
▁animal	-2424
▁calcul	-2425
▁commun	-2426
▁dolyar	-2427
▁inside	-2428
▁maliit	-2429
▁nakaka	-2430
▁niyang	-2431
▁scient	-2432
▁trying	-2433
▁country	-2434
▁express	-2435
▁gitnang	-2436
▁kultura	-2437
▁mabilis	-2438
▁paligid	-2439
▁profess	-2440
▁surpris	-2441
▁citizens	-2442
▁gumagawa	-2443
▁kriminal	-2444
▁kuryente	-2445
▁mangyari	-2446
▁problems	-2447
▁speaking	-2448
intindihan	-2449
▁everybody	-2450
▁kailanman	-2451
▁kasagutan	-2452
▁nakaraang	-2453
▁nararapat	-2454
▁titingnan	-2455
▁kasaysayan	-2456
▁information	-2457
▁pananaliksik	-2458
bi	-2459
da	-2460
ho	-2461
bon	-2462
cil	-2463
elt	-2464
ier	-2465
isk	-2466
kum	-2467
now	-2468
ohn	-2469
oke	-2470
ont	-2471
oud	-2472
pan	-2473
ube	-2474
uce	-2475
▁40	-2476
akat	-2477
anto	-2478
aryo	-2479
ayin	-2480
ctor	-2481
ends	-2482
ered	-2483
hran	-2484
ined	-2485
ouse	-2486
ulog	-2487
unog	-2488
what	-2489
▁cho	-2490
▁cut	-2491
▁hay	-2492
▁iyo	-2493
▁lak	-2494
▁nuc	-2495
▁pen	-2496
▁ret	-2497
▁set	-2498
aging	-2499
ahagi	-2500
asang	-2501
conom	-2502
ction	-2503
ellig	-2504
hanap	-2505
oston	-2506
ously	-2507
ugnay	-2508
▁dati	-2509
▁deep	-2510
▁elem	-2511
▁felt	-2512
▁file	-2513
▁half	-2514
▁hari	-2515
▁kada	-2516
▁kump	-2517
▁kund	-2518
▁lung	-2519
▁mess	-2520
▁muli	-2521
▁orig	-2522
▁pera	-2523
▁soft	-2524
▁word	-2525
akanan	-2526
alakas	-2527
alleng	-2528
asyong	-2529
emikal	-2530
ention	-2531
iranin	-2532
▁along	-2533
▁clean	-2534
▁crowd	-2535
▁lying	-2536
▁malin	-2537
▁month	-2538
▁nabab	-2539
▁order	-2540
▁pagng	-2541
▁pakir	-2542
▁phone	-2543
▁posit	-2544
▁sleep	-2545
▁turns	-2546
▁couldn	-2547
▁danger	-2548
▁econom	-2549
▁effect	-2550
▁friday	-2551
▁hangin	-2552
▁iisang	-2553
▁maayos	-2554
▁masaya	-2555
▁mother	-2556
▁nagkak	-2557
▁nalang	-2558
▁pitong	-2559
▁tuwing	-2560
▁wikang	-2561
agandang	-2562
▁answers	-2563
▁changes	-2564
▁connect	-2565
▁gamitin	-2566
▁kalahat	-2567
▁leaders	-2568
▁makipag	-2569
▁matapos	-2570
▁narinig	-2571
▁obvious	-2572
▁proseso	-2573
▁challeng	-2574
▁intellig	-2575
▁kaalaman	-2576
▁magbigay	-2577
▁pangalan	-2578
▁pinagtat	-2579
▁sapagkat	-2580
▁siyempre	-2581
▁thousand	-2582
▁computers	-2583
▁hinaharap	-2584
▁kakaibang	-2585
▁magandang	-2586
▁ourselves	-2587
▁pagdating	-2588
▁suliranin	-2589
▁completely	-2590
▁katanungan	-2591
▁pakiramdam	-2592
▁mathematics	-2593
-1	-2594
pe	-2595
ts	-2596
bas	-2597
ead	-2598
ene	-2599
ibl	-2600
iko	-2601
its	-2602
lad	-2603
ped	-2604
raq	-2605
udd	-2606
uel	-2607
▁la	-2608
acks	-2609
akan	-2610
alaw	-2611
anap	-2612
ates	-2613
eare	-2614
ford	-2615
ingg	-2616
ipat	-2617
ipon	-2618
ists	-2619
ived	-2620
less	-2621
mang	-2622
oses	-2623
ours	-2624
rote	-2625
tibo	-2626
ulie	-2627
work	-2628
▁ale	-2629
▁bak	-2630
▁bil	-2631
▁dar	-2632
▁emp	-2633
▁equ	-2634
▁hop	-2635
▁nad	-2636
▁seg	-2637
▁tur	-2638
agdag	-2639
ataas	-2640
awala	-2641
ented	-2642
erson	-2643
inary	-2644
olunt	-2645
ready	-2646
uturo	-2647
uusap	-2648
▁anal	-2649
▁ayaw	-2650
▁conf	-2651
▁daan	-2652
▁dark	-2653
▁dire	-2654
▁easy	-2655
▁euro	-2656
▁fair	-2657
▁farm	-2658
▁fire	-2659
▁flow	-2660
▁full	-2661
▁gano	-2662
▁gets	-2663
▁gift	-2664
▁iraq	-2665
▁line	-2666
▁lupa	-2667
▁phys	-2668
▁sand	-2669
▁soci	-2670
▁soon	-2671
▁ways	-2672
ahayag	-2673
istics	-2674
usugan	-2675
▁bring	-2676
▁earth	-2677
▁favor	-2678
▁green	-2679
▁hours	-2680
▁hugis	-2681
▁huwag	-2682
▁julie	-2683
▁kalag	-2684
▁makes	-2685
▁music	-2686
▁papel	-2687
▁parte	-2688
▁pinap	-2689
▁pulit	-2690
▁relig	-2691
▁relih	-2692
▁sagot	-2693
▁share	-2694
▁small	-2695
▁takes	-2696
▁third	-2697
▁tubig	-2698
▁tungo	-2699
▁write	-2700
▁wrote	-2701
alawang	-2702
aracter	-2703
espeare	-2704
▁access	-2705
▁entire	-2706
▁figure	-2707
▁galing	-2708
▁gawain	-2709
▁genius	-2710
▁google	-2711
▁longer	-2712
▁nagawa	-2713
▁pinags	-2714
▁propes	-2715
▁public	-2716
▁tehran	-2717
aligiran	-2718
alikhain	-2719
▁account	-2720
▁already	-2721
▁amerika	-2722
▁friends	-2723
▁gillian	-2724
▁interes	-2725
▁kabuuan	-2726
▁kagamit	-2727
▁kemikal	-2728
▁perfect	-2729
▁program	-2730
▁sitting	-2731
▁smiling	-2732
▁tanging	-2733
▁written	-2734
▁consider	-2735
▁kasaluku	-2736
▁pagngiti	-2737
▁proyekto	-2738
▁silangan	-2739
▁siyensya	-2740
▁somebody	-2741
▁kapakanan	-2742
▁nagkaroon	-2743
▁nangangah	-2744
▁relations	-2745
▁sasabihin	-2746
▁pangyayari	-2747
▁revolution	-2748
▁impormasyon	-2749
▁pagsaliksik	-2750
▁shakespeare	-2751
▁pagkakataong	-2752
▁pagkamalikhain	-2753
9.	-2754
cr	-2755
gl	-2756
my	-2757
ada	-2758
ged	-2759
ham	-2760
iss	-2761
itz	-2762
iye	-2763
ogn	-2764
opl	-2765
sep	-2766
urt	-2767
usa	-2768
win	-2769
yun	-2770
▁13	-2771
▁14	-2772
▁90	-2773
ahal	-2774
alem	-2775
ator	-2776
cape	-2777
ctic	-2778
ghan	-2779
idge	-2780
ield	-2781
iyan	-2782
kero	-2783
omes	-2784
ubuo	-2785
ukat	-2786
unin	-2787
view	-2788
year	-2789
▁100	-2790
▁199	-2791
▁dil	-2792
▁eat	-2793
▁eks	-2794
▁gas	-2795
▁isn	-2796
▁lap	-2797
▁lit	-2798
▁los	-2799
▁naw	-2800
▁pur	-2801
▁puw	-2802
▁sik	-2803
▁ste	-2804
▁tan	-2805
awing	-2806
ining	-2807
itish	-2808
osyon	-2809
raord	-2810
toong	-2811
umpis	-2812
unlad	-2813
where	-2814
▁agad	-2815
▁bund	-2816
▁clos	-2817
▁cond	-2818
▁fran	-2819
▁hell	-2820
▁hope	-2821
▁hydr	-2822
▁inih	-2823
▁ipap	-2824
▁john	-2825
▁kang	-2826
▁kanl	-2827
▁kill	-2828
▁lots	-2829
▁opis	-2830
▁pala	-2831
▁pred	-2832
▁step	-2833
▁stre	-2834
▁suit	-2835
▁surf	-2836
▁tula	-2837
▁wish	-2838
babago	-2839
usalem	-2840
utions	-2841
▁akala	-2842
▁black	-2843
▁bueno	-2844
▁busin	-2845
▁cairo	-2846
▁cells	-2847
▁demon	-2848
▁detal	-2849
▁eight	-2850
▁eropl	-2851
▁genet	-2852
▁hamon	-2853
▁house	-2854
▁islam	-2855
▁kundi	-2856
▁leave	-2857
▁light	-2858
▁liter	-2859
▁mahal	-2860
▁mapap	-2861
▁matut	-2862
▁medyo	-2863
▁novel	-2864
▁paper	-2865
▁sound	-2866
▁trust	-2867
agaling	-2868
▁afghan	-2869
▁boston	-2870
▁center	-2871
▁epekto	-2872
▁family	-2873
▁honest	-2874
▁instit	-2875
▁kaunti	-2876
▁kayang	-2877
▁looked	-2878
▁nagsas	-2879
▁notice	-2880
▁pansin	-2881
▁recogn	-2882
▁return	-2883
▁screen	-2884
▁states	-2885
alagahan	-2886
ological	-2887
▁british	-2888
▁emosyon	-2889
▁exactly	-2890
▁instead	-2891
▁layunin	-2892
▁malawak	-2893
▁matemat	-2894
▁opossum	-2895
▁papaano	-2896
▁pinapat	-2897
▁product	-2898
▁resulta	-2899
▁running	-2900
▁serious	-2901
▁stories	-2902
▁totoong	-2903
andaigdig	-2904
▁american	-2905
▁audience	-2906
▁business	-2907
▁calculus	-2908
▁interact	-2909
▁reaksyon	-2910
▁realized	-2911
▁software	-2912
▁thinking	-2913
▁whatever	-2914
▁kalusugan	-2915
▁lumalabas	-2916
▁patungkol	-2917
▁wonderful	-2918
▁kapaligiran	-2919
▁sinungaling	-2920
▁relationship	-2921
cc	-2922
ix	-2923
bit	-2924
get	-2925
hap	-2926
iwa	-2927
lar	-2928
law	-2929
not	-2930
olo	-2931
ond	-2932
ono	-2933
oor	-2934
ott	-2935
tin	-2936
uck	-2937
uda	-2938
▁15	-2939
▁et	-2940
▁hi	-2941
▁id	-2942
▁je	-2943
anim	-2944
ased	-2945
enta	-2946
iant	-2947
ilit	-2948
imul	-2949
irat	-2950
isik	-2951
raid	-2952
ugol	-2953
▁age	-2954
▁bre	-2955
▁cou	-2956
▁dep	-2957
▁div	-2958
▁dom	-2959
▁enc	-2960
▁exc	-2961
▁eye	-2962
▁fas	-2963
▁ger	-2964
▁ill	-2965
▁isy	-2966
▁leg	-2967
▁mic	-2968
▁nuk	-2969
▁rom	-2970
▁suf	-2971
▁ulo	-2972
▁win	-2973
abago	-2974
abuti	-2975
alaro	-2976
ality	-2977
anood	-2978
ikong	-2979
iness	-2980
ipili	-2981
itzer	-2982
ledge	-2983
olate	-2984
ormal	-2985
paman	-2986
rimen	-2987
▁amin	-2988
▁asth	-2989
▁aver	-2990
▁base	-2991
▁born	-2992
▁dami	-2993
▁disc	-2994
▁disk	-2995
▁doll	-2996
▁driv	-2997
▁east	-2998
▁face	-2999
▁free	-3000
▁hear	-3001
▁hold	-3002
▁kina	-3003
▁ling	-3004
▁magm	-3005
▁mist	-3006
▁muse	-3007
▁must	-3008
▁post	-3009
▁rele	-3010
▁russ	-3011
▁spec	-3012
▁warm	-3013
▁week	-3014
anggal	-3015
anggit	-3016
anggol	-3017
angiti	-3018
atuloy	-3019
iwalay	-3020
▁allow	-3021
▁angel	-3022
▁crime	-3023
▁dagat	-3024
▁dance	-3025
▁disco	-3026
▁elect	-3027
▁facts	-3028
▁gamot	-3029
▁hands	-3030
▁hener	-3031
▁incre	-3032
▁intel	-3033
▁klase	-3034
▁lands	-3035
▁looks	-3036
▁makal	-3037
▁porsy	-3038
▁pwede	-3039
▁skill	-3040
▁stuff	-3041
▁uling	-3042
ikilala	-3043
uklasan	-3044
ulungan	-3045
yarihan	-3046
▁afraid	-3047
▁couple	-3048
▁detail	-3049
▁halaga	-3050
▁haring	-3051
▁includ	-3052
▁intern	-3053
▁isipan	-3054
▁kabata	-3055
▁kinaka	-3056
▁mataas	-3057
▁myself	-3058
▁others	-3059
▁pinagk	-3060
▁planta	-3061
▁please	-3062
▁spread	-3063
▁superp	-3064
▁tamang	-3065
▁theory	-3066
▁within	-3067
alarawan	-3068
▁against	-3069
▁average	-3070
▁century	-3071
▁control	-3072
▁detalye	-3073
▁hacking	-3074
▁liespot	-3075
▁lipunan	-3076
▁makapag	-3077
▁malapit	-3078
▁nandito	-3079
▁napakar	-3080
▁paggawa	-3081
▁pangino	-3082
▁paraang	-3083
▁patungo	-3084
▁pumunta	-3085
▁version	-3086
umpisahan	-3087
▁building	-3088
▁extraord	-3089
▁infected	-3090
▁magagawa	-3091
▁masasabi	-3092
▁morality	-3093
▁national	-3094
▁pamahala	-3095
▁students	-3096
▁tinanong	-3097
▁yourself	-3098
▁character	-3099
▁gumagamit	-3100
▁interview	-3101
▁kalagayan	-3102
▁natutunan	-3103
▁gayunpaman	-3104
▁kababaihan	-3105
▁kakayahang	-3106
▁pagkakaiba	-3107
▁pandaigdig	-3108
▁understood	-3109
inungalingan	-3110
▁nagsasabing	-3111
▁intelligence	-3112
▁salamangkero	-3113
▁cybercriminal	-3114
▁extraordinary	-3115
▁teknolohiyang	-3116
▁pinakamalaking	-3117
▁kasinungalingan	-3118
.,	-3119
ec	-3120
hh	-3121
akb	-3122
aks	-3123
akt	-3124
ale	-3125
als	-3126
ane	-3127
ati	-3128
bur	-3129
ior	-3130
jad	-3131
ler	-3132
ods	-3133
ogr	-3134
pal	-3135
sha	-3136
sto	-3137
tle	-3138
▁aw	-3139
▁iw	-3140
▁ve	-3141
▁vo	-3142
abay	-3143
abor	-3144
adem	-3145
agad	-3146
ages	-3147
alab	-3148
arto	-3149
ases	-3150
burg	-3151
ding	-3152
enyo	-3153
fort	-3154
ibly	-3155
ista	-3156
ktor	-3157
mark	-3158
most	-3159
rees	-3160
rent	-3161
ried	-3162
stit	-3163
ther	-3164
tube	-3165
uhit	-3166
ulum	-3167
▁150	-3168
▁600	-3169
▁ant	-3170
▁arg	-3171
▁bir	-3172
▁den	-3173
▁etc	-3174
▁hot	-3175
▁mot	-3176
▁pad	-3177
▁pie	-3178
▁pis	-3179
▁row	-3180
▁rul	-3181
▁sea	-3182
▁sho	-3183
▁sun	-3184
▁tit	-3185
anang	-3186
atura	-3187
brang	-3188
elebr	-3189
ident	-3190
ihang	-3191
iliit	-3192
inang	-3193
ising	-3194
ither	-3195
onood	-3196
ouble	-3197
ugali	-3198
unong	-3199
verse	-3200
yente	-3201
▁anyo	-3202
▁baga	-3203
▁baka	-3204
▁bear	-3205
▁conc	-3206
▁conv	-3207
▁cook	-3208
▁corp	-3209
▁dece	-3210
▁ding	-3211
▁edad	-3212
▁fall	-3213
▁fast	-3214
▁gabi	-3215
▁gang	-3216
▁insp	-3217
▁kita	-3218
▁magd	-3219
▁main	-3220
▁mens	-3221
▁pant	-3222
▁sayo	-3223
▁shah	-3224
▁supp	-3225
▁ulit	-3226
▁usap	-3227
▁yelo	-3228
alahat	-3229
atlong	-3230
ibleng	-3231
inggil	-3232
market	-3233
ubuhay	-3234
udulot	-3235
ungkot	-3236
▁agham	-3237
▁allah	-3238
▁amjad	-3239
▁asawa	-3240
▁basit	-3241
▁begin	-3242
▁block	-3243
▁class	-3244
▁death	-3245
▁exist	-3246
▁fight	-3247
▁front	-3248
▁henyo	-3249
▁inaas	-3250
▁invol	-3251
▁knows	-3252
▁later	-3253
▁makab	-3254
▁manun	-3255
▁model	-3256
▁nanay	-3257
▁pabor	-3258
▁palag	-3259
▁pamum	-3260
▁prote	-3261
▁simpl	-3262
▁space	-3263
▁study	-3264
▁suitc	-3265
▁takot	-3266
▁tangk	-3267
▁tawag	-3268
▁treat	-3269
▁value	-3270
akailan	-3271
alakbay	-3272
alaysay	-3273
ambuhay	-3274
ersburg	-3275
inabang	-3276
iratory	-3277
olohiya	-3278
shazzar	-3279
ugnayan	-3280
unities	-3281
▁almost	-3282
▁amount	-3283
▁answer	-3284
▁became	-3285
▁carder	-3286
▁colors	-3287
▁create	-3288
▁ekonom	-3289
▁events	-3290
▁ganoon	-3291
▁krimen	-3292
▁labing	-3293
▁leader	-3294
▁living	-3295
▁madali	-3296
▁minute	-3297
▁nagsis	-3298
▁nakuha	-3299
▁niyong	-3300
▁pagmam	-3301
▁sanang	-3302
▁single	-3303
▁skills	-3304
▁values	-3305
▁vision	-3306
▁angeles	-3307
▁biglang	-3308
▁convers	-3309
▁current	-3310
▁dollars	-3311
▁gumamit	-3312
▁hinggil	-3313
▁industr	-3314
▁learned	-3315
▁lumikha	-3316
▁mababaw	-3317
▁mahusay	-3318
▁malinaw	-3319
▁malware	-3320
▁nakapag	-3321
▁ngayong	-3322
▁nuclear	-3323
▁opinyon	-3324
▁patuloy	-3325
▁sinulat	-3326
▁sobrang	-3327
▁surface	-3328
▁viruses	-3329
▁youtube	-3330
▁demonstr	-3331
▁electric	-3332
▁eroplano	-3333
▁kabataan	-3334
▁maliliit	-3335
▁parehong	-3336
▁politics	-3337
▁propesor	-3338
▁reaction	-3339
▁basically	-3340
▁chemother	-3341
▁community	-3342
▁criminals	-3343
▁katangian	-3344
▁knowledge	-3345
▁landscape	-3346
▁mamamayan	-3347
▁porsyento	-3348
▁relihiyon	-3349
▁summaries	-3350
▁tagasunod	-3351
▁belshazzar	-3352
▁extroverts	-3353
▁kamakailan	-3354
▁malalaking	-3355
▁matematika	-3356
▁nakakatuwa	-3357
▁petersburg	-3358
▁salamangka	-3359
▁magkakaroon	-3360
▁pagpapahalaga	-3361
▁cybercriminals	-3362
0,	-3363
ba	-3364
fl	-3365
he	-3366
hi	-3367
li	-3368
ob	-3369
of	-3370
ade	-3371
ana	-3372
ges	-3373
jor	-3374
ole	-3375
ral	-3376
sod	-3377
uin	-3378
yos	-3379
▁es	-3380
▁ju	-3381
▁ur	-3382
abal	-3383
abuk	-3384
akes	-3385
anib	-3386
aphy	-3387
arin	-3388
asal	-3389
book	-3390
igan	-3391
iple	-3392
ired	-3393
itud	-3394
olds	-3395
outh	-3396
plan	-3397
rang	-3398
raud	-3399
rist	-3400
rown	-3401
ubok	-3402
unga	-3403
usta	-3404
vant	-3405
word	-3406
▁ate	-3407
▁biy	-3408
▁cra	-3409
▁deg	-3410
▁dek	-3411
▁ess	-3412
▁led	-3413
▁mur	-3414
▁non	-3415
▁oil	-3416
▁pug	-3417
▁rad	-3418
▁ult	-3419
▁umi	-3420
▁umu	-3421
▁yes	-3422
akain	-3423
ander	-3424
astos	-3425
atong	-3426
emplo	-3427
entip	-3428
ibers	-3429
icult	-3430
igtas	-3431
igyan	-3432
ingin	-3433
intay	-3434
istic	-3435
ityum	-3436
septo	-3437
sters	-3438
tract	-3439
udden	-3440
uklas	-3441
vered	-3442
video	-3443
▁apar	-3444
▁aren	-3445
▁body	-3446
▁both	-3447
▁dala	-3448
▁desp	-3449
▁grad	-3450
▁hakb	-3451
▁hika	-3452
▁ibin	-3453
▁jews	-3454
▁jour	-3455
▁kata	-3456
▁koko	-3457
▁libo	-3458
▁maib	-3459
▁maka	-3460
▁mass	-3461
▁muna	-3462
▁poet	-3463
▁pran	-3464
▁priv	-3465
▁pull	-3466
▁push	-3467
▁ring	-3468
▁sitw	-3469
▁sure	-3470
▁taas	-3471
▁tind	-3472
▁tool	-3473
anghal	-3474
aranas	-3475
idence	-3476
imulan	-3477
isipan	-3478
istika	-3479
ukunan	-3480
undong	-3481
utihan	-3482
▁apart	-3483
▁balan	-3484
▁boses	-3485
▁chess	-3486
▁ganap	-3487
▁hayop	-3488
▁helps	-3489
▁labas	-3490
▁lapis	-3491
▁liars	-3492
▁magka	-3493
▁major	-3494
▁mapag	-3495
▁marin	-3496
▁needs	-3497
▁negos	-3498
▁panib	-3499
▁plane	-3500
▁popul	-3501
▁rebol	-3502
▁sakit	-3503
▁shape	-3504
▁since	-3505
▁sinus	-3506
alagyan	-3507
ational	-3508
hangang	-3509
ihirang	-3510
unawaan	-3511
utulong	-3512
▁anyway	-3513
▁aspeto	-3514
▁balita	-3515
▁ballet	-3516
▁beings	-3517
▁cannot	-3518
▁celebr	-3519
▁consci	-3520
▁dinner	-3521
▁doctor	-3522
▁either	-3523
▁estado	-3524
▁german	-3525
▁harang	-3526
▁hayaan	-3527
▁kausap	-3528
▁kinuha	-3529
▁magsas	-3530
▁makatw	-3531
▁malaki	-3532
▁maleta	-3533
▁muslim	-3534
▁myster	-3535
▁nagmum	-3536
▁nahawa	-3537
▁namang	-3538
▁napaka	-3539
▁pamant	-3540
▁planet	-3541
▁resist	-3542
▁russia	-3543
▁samant	-3544
▁source	-3545
▁starts	-3546
▁street	-3547
▁sudden	-3548
▁suffer	-3549
▁temple	-3550
▁umaasa	-3551
▁wouldn	-3552
abukasan	-3553
aganapan	-3554
aliwanag	-3555
▁artists	-3556
▁becomes	-3557
▁changed	-3558
▁clearly	-3559
▁climate	-3560
▁eastern	-3561
▁hakbang	-3562
▁happens	-3563
▁himself	-3564
▁humigit	-3565
▁hydrant	-3566
▁iranian	-3567
▁katulad	-3568
▁mahigit	-3569
▁malakas	-3570
▁matagal	-3571
▁morning	-3572
▁organic	-3573
▁pamilya	-3574
▁papunta	-3575
▁protect	-3576
▁quality	-3577
▁society	-3578
▁switzer	-3579
▁systems	-3580
▁tagapag	-3581
▁tahimik	-3582
▁telling	-3583
▁tinawag	-3584
▁warming	-3585
▁continue	-3586
▁daughter	-3587
▁favorite	-3588
▁kabilang	-3589
▁konsepto	-3590
▁nakilala	-3591
▁original	-3592
▁paggamit	-3593
▁particip	-3594
▁patients	-3595
▁recently	-3596
▁salaysay	-3597
▁simpleng	-3598
▁siyentip	-3599
▁compounds	-3600
▁dangerous	-3601
▁kaganapan	-3602
▁magsalita	-3603
▁manunulat	-3604
▁posibleng	-3605
▁sistemang	-3606
▁generation	-3607
▁magtrabaho	-3608
▁mapapansin	-3609
▁natuklasan	-3610
▁pamahalaan	-3611
▁pamamaraan	-3612
▁sinasabing	-3613
▁paglalakbay	-3614
▁switzerland	-3615
▁conversation	-3616
▁maintindihan	-3617
▁kinakailangan	-3618
▁pandaigdigang	-3619
▁nangangahulugan	-3620
",	-3621
2.	-3622
dy	-3623
ny	-3624
pr	-3625
xy	-3626
ave	-3627
bra	-3628
eci	-3629
eho	-3630
esa	-3631
exp	-3632
gaw	-3633
hel	-3634
hes	-3635
het	-3636
how	-3637
igi	-3638
imp	-3639
ips	-3640
ley	-3641
mon	-3642
oot	-3643
oto	-3644
ows	-3645
pag	-3646
par	-3647
pla	-3648
pub	-3649
ret	-3650
ser	-3651
ted	-3652
uit	-3653
uon	-3654
uwi	-3655
yas	-3656
you	-3657
▁ov	-3658
▁wa	-3659
agpo	-3660
ahad	-3661
ahiw	-3662
apon	-3663
asak	-3664
atig	-3665
ayam	-3666
bert	-3667
emak	-3668
emon	-3669
empt	-3670
form	-3671
hind	-3672
hman	-3673
igla	-3674
iles	-3675
irit	-3676
iyos	-3677
ohen	-3678
olum	-3679
orry	-3680
ping	-3681
quez	-3682
rael	-3683
rong	-3684
sama	-3685
ubog	-3686
ukan	-3687
▁30-	-3688
▁abo	-3689
▁atm	-3690
▁bik	-3691
▁boy	-3692
▁bul	-3693
▁cep	-3694
▁cha	-3695
▁die	-3696
▁lat	-3697
▁law	-3698
▁loc	-3699
▁max	-3700
▁mel	-3701
▁men	-3702
▁mob	-3703
▁nut	-3704
▁oce	-3705
▁pot	-3706
▁rap	-3707
▁sis	-3708
▁spr	-3709
▁tap	-3710
▁tel	-3711
▁wow	-3712
agsak	-3713
ators	-3714
bidyo	-3715
cient	-3716
empor	-3717
gusto	-3718
halop	-3719
ideos	-3720
ingly	-3721
oorin	-3722
order	-3723
owers	-3724
rabah	-3725
troll	-3726
umbas	-3727
ungin	-3728
urong	-3729
usang	-3730
wento	-3731
▁1990	-3732
▁alex	-3733
▁atom	-3734
▁auth	-3735
▁beha	-3736
▁bers	-3737
▁coll	-3738
▁comb	-3739
▁corn	-3740
▁data	-3741
▁date	-3742
▁drug	-3743
▁feed	-3744
▁feet	-3745
▁game	-3746
▁guro	-3747
▁inil	-3748
▁kaay	-3749
▁klak	-3750
▁loss	-3751
▁lost	-3752
▁maik	-3753
▁mill	-3754
▁niye	-3755
▁page	-3756
▁pick	-3757
▁port	-3758
▁prep	-3759
▁send	-3760
▁serv	-3761
▁sina	-3762
▁snow	-3763
▁spot	-3764
▁tast	-3765
▁terr	-3766
▁vari	-3767
▁vast	-3768
aalala	-3769
alikha	-3770
bersec	-3771
entong	-3772
ground	-3773
icides	-3774
igilan	-3775
ikhain	-3776
inding	-3777
irinig	-3778
isipin	-3779
mented	-3780
pansin	-3781
planet	-3782
publik	-3783
ubukan	-3784
ulatan	-3785
umpisa	-3786
upunta	-3787
uugnay	-3788
uwento	-3789
▁admit	-3790
▁bahag	-3791
▁bayan	-3792
▁bibig	-3793
▁binib	-3794
▁bukas	-3795
▁bundy	-3796
▁catch	-3797
▁champ	-3798
▁cheer	-3799
▁chris	-3800
▁close	-3801
▁dilaw	-3802
▁diyan	-3803
▁dulot	-3804
▁email	-3805
▁event	-3806
▁expla	-3807
▁frank	-3808
▁grant	-3809
▁guess	-3810
▁hinih	-3811
▁ipagp	-3812
▁juice	-3813
▁keith	-3814
▁labor	-3815
▁laman	-3816
▁likha	-3817
▁lived	-3818
▁mabig	-3819
▁mount	-3820
▁nakar	-3821
▁niyan	-3822
▁nobel	-3823
▁nyang	-3824
▁obama	-3825
▁pinto	-3826
▁plant	-3827
▁reach	-3828
▁royal	-3829
▁scott	-3830
▁sigur	-3831
▁silid	-3832
▁sorry	-3833
▁stage	-3834
▁sunod	-3835
▁tests	-3836
▁train	-3837
▁tried	-3838
▁tunog	-3839
▁umaga	-3840
▁white	-3841
▁woman	-3842
▁young	-3843
akilala	-3844
anganak	-3845
anganib	-3846
ecially	-3847
initely	-3848
uusapan	-3849
▁appear	-3850
▁applic	-3851
▁asking	-3852
▁behind	-3853
▁carbon	-3854
▁closer	-3855
▁darwin	-3856
▁device	-3857
▁disapp	-3858
▁doktor	-3859
▁expect	-3860
▁fellow	-3861
▁gagawa	-3862
▁grandf	-3863
▁helium	-3864
▁huling	-3865
▁ilagay	-3866
▁impact	-3867
▁incred	-3868
▁invest	-3869
▁israel	-3870
▁kinain	-3871
▁langis	-3872
▁linggo	-3873
▁nature	-3874
▁nobody	-3875
▁office	-3876
▁opport	-3877
▁pencil	-3878
▁persya	-3879
▁pintor	-3880
▁pranav	-3881
▁propos	-3882
▁pugita	-3883
▁regalo	-3884
▁robert	-3885
▁slight	-3886
▁umalis	-3887
▁videos	-3888
▁walong	-3889
▁yellow	-3890
ahiwatig	-3891
alabasan	-3892
alimutan	-3893
igayahan	-3894
ilinlang	-3895
rabahuan	-3896
▁ability	-3897
▁ancient	-3898
▁anybody	-3899
▁bilyong	-3900
▁bumalik	-3901
▁collect	-3902
▁degrees	-3903
▁forward	-3904
▁gagamit	-3905
▁ideyang	-3906
▁iisipin	-3907
▁kilusan	-3908
▁kuwarto	-3909
▁largest	-3910
▁makamit	-3911
▁masalim	-3912
▁mensahe	-3913
▁nagbago	-3914
▁napakah	-3915
▁network	-3916
▁nuklear	-3917
▁numbers	-3918
▁opisina	-3919
▁ovarian	-3920
▁pumasok	-3921
▁reading	-3922
▁respons	-3923
▁sandali	-3924
▁seconds	-3925
▁sumunod	-3926
▁taliban	-3927
▁tanggap	-3928
▁towards	-3929
▁anderson	-3930
▁binigyan	-3931
▁cephalop	-3932
▁cultural	-3933
▁cybersec	-3934
▁function	-3935
▁ikatlong	-3936
▁illusion	-3937
▁kalahati	-3938
▁kanluran	-3939
▁larangan	-3940
▁millions	-3941
▁nilalang	-3942
▁pagkilos	-3943
▁pakistan	-3944
▁panoorin	-3945
▁pasyente	-3946
▁pulitika	-3947
▁solusyon	-3948
▁subjects	-3949
▁suitcase	-3950
▁tastemak	-3951
▁teaching	-3952
▁watching	-3953
▁challenge	-3954
▁condition	-3955
▁ipapakita	-3956
▁kabutihan	-3957
▁kagamitan	-3958
▁kasulatan	-3959
▁nabubuhay	-3960
▁nagaganap	-3961
▁nagmumula	-3962
▁nakikipag	-3963
▁natanggap	-3964
▁natatakot	-3965
▁pampublik	-3966
▁political	-3967
▁solutions	-3968
▁tinutukoy	-3969
angailangan	-3970
▁difference	-3971
▁especially	-3972
▁expiratory	-3973
▁expression	-3974
▁henerasyon	-3975
▁mahalagang	-3976
▁manlilikha	-3977
▁pagsusulat	-3978
▁panibagong	-3979
▁statistics	-3980
▁afghanistan	-3981
▁ipinanganak	-3982
▁kaligayahan	-3983
▁kinabukasan	-3984
▁nakakatakot	-3985
▁pangalawang	-3986
▁carderplanet	-3987
▁napakaraming	-3988
▁cybersecurity	-3989
ee	-3990
ky	-3991
ms	-3992
ni	-3993
pa	-3994
tw	-3995
▁x	-3996
abl	-3997
adr	-3998
ahi	-3999
aky	-4000
api	-4001
ato	-4002
aut	-4003
cle	-4004
die	-4005
ekt	-4006
emb	-4007
ext	-4008
ido	-4009
ima	-4010
inc	-4011
isf	-4012
key	-4013
lee	-4014
mel	-4015
ney	-4016
orp	-4017
pit	-4018
ras	-4019
rem	-4020
tom	-4021
uko	-4022
uns	-4023
uny	-4024
ute	-4025
wel	-4026
yer	-4027
▁ec	-4028
▁mr	-4029
▁ol	-4030
▁pi	-4031
ably	-4032
ahok	-4033
akaw	-4034
alub	-4035
angh	-4036
angi	-4037
aput	-4038
ares	-4039
asat	-4040
atic	-4041
bing	-4042
brew	-4043
cles	-4044
come	-4045
ctop	-4046
eter	-4047
glit	-4048
haps	-4049
iced	-4050
ilim	-4051
ingi	-4052
inta	-4053
isyo	-4054
itch	-4055
iver	-4056
ivid	-4057
king	-4058
kung	-4059
lies	-4060
load	-4061
rato	-4062
ream	-4063
uang	-4064
uary	-4065
ubos	-4066
ubre	-4067
udad	-4068
ught	-4069
upad	-4070
ured	-4071
urok	-4072
usog	-4073
wari	-4074
well	-4075
wood	-4076
▁400	-4077
▁abs	-4078
▁adh	-4079
▁ban	-4080
▁bib	-4081
▁cam	-4082
▁cat	-4083
▁cru	-4084
▁dam	-4085
▁dug	-4086
▁fro	-4087
▁fur	-4088
▁gre	-4089
▁gug	-4090
▁het	-4091
▁key	-4092
▁log	-4093
▁lun	-4094
▁mai	-4095
▁mem	-4096
▁nai	-4097
▁ner	-4098
▁opt	-4099
▁pel	-4100
▁reh	-4101
▁ris	-4102
▁ros	-4103
▁son	-4104
▁syn	-4105
▁tra	-4106
ababa	-4107
adali	-4108
aking	-4109
alakh	-4110
alent	-4111
ament	-4112
angat	-4113
anggi	-4114
asure	-4115
edeng	-4116
gress	-4117
insan	-4118
irito	-4119
itude	-4120
matic	-4121
ments	-4122
odies	-4123
ooper	-4124
palad	-4125
peryo	-4126
risis	-4127
tered	-4128
uluto	-4129
uries	-4130
urusa	-4131
▁alas	-4132
▁bato	-4133
▁belo	-4134
▁blue	-4135
▁cere	-4136
▁char	-4137
▁diff	-4138
▁door	-4139
▁gaan	-4140
▁gest	-4141
▁gold	-4142
▁ikin	-4143
▁isyu	-4144
▁kont	-4145
▁lagi	-4146
▁leng	-4147
▁lolo	-4148
▁lose	-4149
▁magh	-4150
▁mait	-4151
▁masy	-4152
▁miss	-4153
▁mort	-4154
▁nice	-4155
▁nine	-4156
▁ones	-4157
▁peak	-4158
▁poem	-4159
▁pray	-4160
▁punt	-4161
▁puso	-4162
▁rain	-4163
▁role	-4164
▁roll	-4165
▁samp	-4166
▁shut	-4167
▁situ	-4168
▁stay	-4169
▁tank	-4170
▁type	-4171
▁wait	-4172
▁wind	-4173
agalan	-4174
aganda	-4175
agpuan	-4176
alidad	-4177
asanib	-4178
atford	-4179
ctopus	-4180
fortun	-4181
halakh	-4182
iences	-4183
ihinal	-4184
irahan	-4185
isikap	-4186
itanya	-4187
lation	-4188
ourish	-4189
string	-4190
ukhang	-4191
uluhan	-4192
urahan	-4193
▁antas	-4194
▁apple	-4195
▁based	-4196
▁binab	-4197
▁brill	-4198
▁capac	-4199
▁colom	-4200
▁color	-4201
▁datos	-4202
▁decre	-4203
▁domin	-4204
▁dream	-4205
▁dying	-4206
▁early	-4207
▁estat	-4208
▁explo	-4209
▁faith	-4210
▁field	-4211
▁fraud	-4212
▁ganun	-4213
▁hawak	-4214
▁heart	-4215
▁hydro	-4216
▁kaaya	-4217
▁kamat	-4218
▁karun	-4219
▁linya	-4220
▁maest	-4221
▁minds	-4222
▁natit	-4223
▁ninan	-4224
▁pagka	-4225
▁pakik	-4226
▁piece	-4227
▁pinah	-4228
▁purch	-4229
▁quick	-4230
▁range	-4231
▁recon	-4232
▁rurok	-4233
▁short	-4234
▁sinis	-4235
▁smart	-4236
▁solar	-4237
▁spend	-4238
▁tools	-4239
▁track	-4240
▁twist	-4241
▁types	-4242
▁unexp	-4243
▁voice	-4244
▁wasto	-4245
ability	-4246
alinong	-4247
angalan	-4248
arating	-4249
arkable	-4250
ceptive	-4251
ikhaing	-4252
imbento	-4253
iskubre	-4254
▁amerik	-4255
▁andito	-4256
▁announ	-4257
▁anyone	-4258
▁bigyan	-4259
▁chance	-4260
▁christ	-4261
▁dalaga	-4262
▁divine	-4263
▁empire	-4264
▁europe	-4265
▁except	-4266
▁faster	-4267
▁forgot	-4268
▁gayong	-4269
▁hebrew	-4270
▁iilang	-4271
▁itsura	-4272
▁kaming	-4273
▁kanina	-4274
▁kapang	-4275
▁katabi	-4276
▁kilala	-4277
▁kuwadr	-4278
▁listen	-4279
▁lumang	-4280
▁makuha	-4281
▁malayo	-4282
▁maling	-4283
▁matter	-4284
▁milyon	-4285
▁months	-4286
▁moving	-4287
▁necess	-4288
▁niyebe	-4289
▁notion	-4290
▁orange	-4291
▁pagtit	-4292
▁prefer	-4293
▁puwang	-4294
▁reject	-4295
▁rowdie	-4296
▁saglit	-4297
▁satisf	-4298
▁shared	-4299
▁smiles	-4300
▁sounds	-4301
▁spirit	-4302
▁square	-4303
▁stimul	-4304
▁though	-4305
▁turned	-4306
▁united	-4307
▁volunt	-4308
▁worked	-4309
alikasan	-4310
kumulang	-4311
umingiti	-4312
▁babaeng	-4313
▁banking	-4314
▁bigyang	-4315
▁brought	-4316
▁central	-4317
▁context	-4318
▁cooking	-4319
▁finally	-4320
▁gaanong	-4321
▁gawaing	-4322
▁grilled	-4323
▁gustong	-4324
▁individ	-4325
▁islamic	-4326
▁message	-4327
▁mukhang	-4328
▁nagmula	-4329
▁nakakal	-4330
▁nakaupo	-4331
▁noticed	-4332
▁octopus	-4333
▁paanong	-4334
▁pangkat	-4335
▁passion	-4336
▁pattern	-4337
▁perhaps	-4338
▁posible	-4339
▁protein	-4340
▁pwedeng	-4341
▁reality	-4342
▁results	-4343
▁schools	-4344
▁segundo	-4345
▁sinuman	-4346
▁siyudad	-4347
▁squares	-4348
▁student	-4349
▁subukan	-4350
▁talento	-4351
▁tidying	-4352
▁wearing	-4353
▁willing	-4354
▁workpla	-4355
▁abilidad	-4356
▁believed	-4357
▁britanya	-4358
▁changing	-4359
▁elemento	-4360
▁evidence	-4361
▁flourish	-4362
▁kaayusan	-4363
▁katumbas	-4364
▁kumpanya	-4365
▁learning	-4366
▁magulang	-4367
▁manonood	-4368
▁mountain	-4369
▁nagbigay	-4370
▁nagpasya	-4371
▁nahawaan	-4372
▁napansin	-4373
▁orihinal	-4374
▁paborito	-4375
▁pagbalik	-4376
▁paminsan	-4377
▁panahong	-4378
▁panganib	-4379
▁pictures	-4380
▁relasyon	-4381
▁salitang	-4382
▁services	-4383
▁unfortun	-4384
▁universe	-4385
halakhakan	-4386
▁asthmatic	-4387
▁beginning	-4388
▁brilliant	-4389
▁centuries	-4390
▁conscious	-4391
▁developed	-4392
▁difficult	-4393
▁ekonomiya	-4394
▁including	-4395
▁kakayahan	-4396
▁magsasaka	-4397
▁malalaman	-4398
▁malikhain	-4399
▁malungkot	-4400
▁mananayaw	-4401
▁modernong	-4402
▁nagsasabi	-4403
▁nakangiti	-4404
▁obviously	-4405
▁pagdurusa	-4406
▁panginoon	-4407
▁pinakamat	-4408
▁professor	-4409
▁silangang	-4410
▁sitwasyon	-4411
▁stratford	-4412
▁therefore	-4413
▁carcinogen	-4414
▁cybercrime	-4415
▁industriya	-4416
▁leadership	-4417
▁magbibigay	-4418
▁mangyayari	-4419
▁nagsusulat	-4420
▁ngumingiti	-4421
▁pagsusulit	-4422
▁remarkable	-4423
▁scriptures	-4424
▁successful	-4425
▁unexpected	-4426
▁communities	-4427
▁engineering	-4428
▁grandfather	-4429
▁pangkalahat	-4430
▁pinapatakbo	-4431
▁samantalang	-4432
▁kasalukuyang	-4433
▁mananaliksik	-4434
▁nakakatuwang	-4435
▁pampublikong	-4436
▁panlilinlang	-4437
▁kapangyarihan	-4438
).	-4439
,3	-4440
1,	-4441
fe	-4442
io	-4443
ua	-4444
uf	-4445
-19	-4446
600	-4447
ako	-4448
apy	-4449
avo	-4450
awn	-4451
cca	-4452
cht	-4453
cks	-4454
dan	-4455
dom	-4456
ean	-4457
eds	-4458
ery	-4459
hod	-4460
iah	-4461
ils	-4462
ime	-4463
iri	-4464
irt	-4465
joy	-4466
kas	-4467
mga	-4468
neg	-4469
oir	-4470
oph	-4471
pas	-4472
put	-4473
rir	-4474
son	-4475
tog	-4476
ton	-4477
udg	-4478
ued	-4479
uly	-4480
uod	-4481
wor	-4482
zed	-4483
▁21	-4484
▁24	-4485
▁ah	-4486
▁bc	-4487
▁bo	-4488
▁ep	-4489
▁fu	-4490
▁pc	-4491
▁pm	-4492
,300	-4493
abag	-4494
aban	-4495
adne	-4496
aged	-4497
ager	-4498
agne	-4499
akop	-4500
aliw	-4501
astr	-4502
away	-4503
ayad	-4504
buch	-4505
chan	-4506
chie	-4507
cked	-4508
eden	-4509
gypt	-4510
hack	-4511
hero	-4512
idos	-4513
ighb	-4514
ihim	-4515
iisa	-4516
ilet	-4517
ilyo	-4518
imag	-4519
imit	-4520
immy	-4521
ires	-4522
isan	-4523
nais	-4524
ocus	-4525
olly	-4526
ones	-4527
onse	-4528
ored	-4529
orge	-4530
osed	-4531
otse	-4532
racy	-4533
reds	-4534
ries	-4535
sequ	-4536
side	-4537
soci	-4538
sour	-4539
ugat	-4540
unaw	-4541
urea	-4542
wide	-4543
xnet	-4544
ynne	-4545
▁16.	-4546
▁ama	-4547
▁aut	-4548
▁bus	-4549
▁cir	-4550
▁cla	-4551
▁dig	-4552
▁dna	-4553
▁fox	-4554
▁han	-4555
▁imb	-4556
▁iss	-4557
▁jer	-4558
▁kim	-4559
▁lad	-4560
▁lok	-4561
▁pil	-4562
▁pri	-4563
▁rab	-4564
▁rid	-4565
▁rup	-4566
▁vas	-4567
▁wal	-4568
▁wes	-4569
▁wil	-4570
▁wis	-4571
ables	-4572
abong	-4573
akala	-4574
akuha	-4575
akyat	-4576
alawa	-4577
alino	-4578
allah	-4579
anies	-4580
arang	-4581
areho	-4582
atake	-4583
atera	-4584
atili	-4585
becca	-4586
bisyo	-4587
cedes	-4588
cence	-4589
crypt	-4590
eland	-4591
ement	-4592
ially	-4593
idden	-4594
ified	-4595
ihira	-4596
ision	-4597
itain	-4598
itter	-4599
iving	-4600
naput	-4601
orrow	-4602
pital	-4603
sunod	-4604
tanto	-4605
taong	-4606
udyok	-4607
uhang	-4608
ument	-4609
utron	-4610
▁2030	-4611
▁alin	-4612
▁apps	-4613
▁ayos	-4614
▁bant	-4615
▁bose	-4616
▁caus	-4617
▁choc	-4618
▁cool	-4619
▁coun	-4620
▁cute	-4621
▁dots	-4622
▁dugo	-4623
▁ends	-4624
▁fail	-4625
▁fake	-4626
▁fing	-4627
▁fund	-4628
▁hund	-4629
▁ibat	-4630
▁ilog	-4631
▁ingl	-4632
▁inse	-4633
▁kept	-4634
▁klee	-4635
▁kond	-4636
▁land	-4637
▁leks	-4638
▁mach	-4639
▁maip	-4640
▁norm	-4641
▁past	-4642
▁path	-4643
▁paul	-4644
▁pint	-4645
▁plat	-4646
▁prib	-4647
▁prom	-4648
▁puti	-4649
▁rece	-4650
▁requ	-4651
▁rich	-4652
▁sama	-4653
▁sens	-4654
▁sequ	-4655
▁shap	-4656
▁ster	-4657
▁sund	-4658
▁suot	-4659
▁susp	-4660
▁team	-4661
▁teen	-4662
▁tens	-4663
▁tick	-4664
▁tidy	-4665
▁tink	-4666
▁tsok	-4667
▁west	-4668
▁worm	-4669
▁york	-4670
alakay	-4671
ancial	-4672
ansang	-4673
atoryo	-4674
awasan	-4675
ential	-4676
ihirap	-4677
ihiyan	-4678
inking	-4679
ismong	-4680
iwalat	-4681
iyasat	-4682
minsan	-4683
ontrol	-4684
usyong	-4685
▁2,300	-4686
▁absol	-4687
▁achie	-4688
▁afric	-4689
▁among	-4690
▁asign	-4691
▁banal	-4692
▁behav	-4693
▁blood	-4694
▁botox	-4695
▁break	-4696
▁brown	-4697
▁burea	-4698
▁cards	-4699
▁enjoy	-4700
▁focus	-4701
▁freed	-4702
▁fuels	-4703
▁gives	-4704
▁griye	-4705
▁hanap	-4706
▁handa	-4707
▁heads	-4708
▁jimmy	-4709
▁kalak	-4710
▁kapan	-4711
▁kapit	-4712
▁kapwa	-4713
▁kauna	-4714
▁kotse	-4715
▁kunst	-4716
▁lakas	-4717
▁large	-4718
▁lawak	-4719
▁lemon	-4720
▁liban	-4721
▁likod	-4722
▁local	-4723
▁lumal	-4724
▁lynne	-4725
▁mahuh	-4726
▁mapab	-4727
▁masas	-4728
▁match	-4729
▁medic	-4730
▁micha	-4731
▁modus	-4732
▁mouth	-4733
▁nagag	-4734
▁nakas	-4735
▁namum	-4736
▁ocean	-4737
▁offic	-4738
▁paksa	-4739
▁palak	-4740
▁party	-4741
▁princ	-4742
▁ready	-4743
▁river	-4744
▁sanhi	-4745
▁shift	-4746
▁shree	-4747
▁sikat	-4748
▁siren	-4749
▁slide	-4750
▁spent	-4751
▁spots	-4752
▁steve	-4753
▁stick	-4754
▁strip	-4755
▁sulok	-4756
▁sumas	-4757
▁swiss	-4758
▁table	-4759
▁taken	-4760
▁telep	-4761
▁tells	-4762
▁terms	-4763
▁tulog	-4764
▁ugali	-4765
▁worry	-4766
amdamin	-4767
ference	-4768
intulot	-4769
ipiliin	-4770
iration	-4771
ressure	-4772
▁alagad	-4773
▁amazon	-4774
▁analog	-4775
▁arabic	-4776
▁arctic	-4777
▁associ	-4778
▁binata	-4779
▁biolum	-4780
▁bodies	-4781
▁bottom	-4782
▁brings	-4783
▁cereal	-4784
▁choice	-4785
▁cooper	-4786
▁edward	-4787
▁eksper	-4788
▁europa	-4789
▁facial	-4790
▁finish	-4791
▁flight	-4792
▁friend	-4793
▁grades	-4794
▁hidden	-4795
▁histor	-4796
▁inihaw	-4797
▁isaiah	-4798
▁kagaya	-4799
▁kaloob	-4800
▁kanang	-4801
▁karbon	-4802
▁kayong	-4803
▁kimmel	-4804
▁kumuha	-4805
▁kuwait	-4806
▁latest	-4807
▁lumaki	-4808
▁magpap	-4809
▁mainam	-4810
▁maisip	-4811
▁masama	-4812
▁master	-4813
▁mechan	-4814
▁mister	-4815
▁mobile	-4816
▁modelo	-4817
▁museum	-4818
▁musika	-4819
▁nagbab	-4820
▁narito	-4821
▁narrat	-4822
▁nebuch	-4823
▁needed	-4824
▁neighb	-4825
▁pagkah	-4826
▁pagkat	-4827
▁pagtut	-4828
▁perpek	-4829
▁pinuno	-4830
▁proper	-4831
▁repres	-4832
▁rupert	-4833
▁saring	-4834
▁series	-4835
▁showed	-4836
▁simula	-4837
▁strang	-4838
▁string	-4839
▁sweden	-4840
▁tahrir	-4841
▁tangke	-4842
▁temper	-4843
▁tidied	-4844
▁toilet	-4845
▁tricks	-4846
▁unidos	-4847
▁usapin	-4848
adnezzar	-4849
atrabaho	-4850
emporary	-4851
▁allowed	-4852
▁baguhin	-4853
▁balance	-4854
▁bandang	-4855
▁bersyon	-4856
▁biggest	-4857
▁billion	-4858
▁britain	-4859
▁carders	-4860
▁company	-4861
▁compass	-4862
▁complex	-4863
▁complic	-4864
▁concept	-4865
▁concern	-4866
▁consequ	-4867
▁constit	-4868
▁continu	-4869
▁details	-4870
▁disenyo	-4871
▁drawing	-4872
▁emperyo	-4873
▁feeling	-4874
▁foreign	-4875
▁further	-4876
▁ginugol	-4877
▁however	-4878
▁ibahagi	-4879
▁ilusyon	-4880
▁kadahil	-4881
▁kakaiba	-4882
▁karagat	-4883
▁kasangk	-4884
▁katangi	-4885
▁kontrol	-4886
▁laganap	-4887
▁librong	-4888
▁literal	-4889
▁lumabas	-4890
▁lungsod	-4891
▁maestro	-4892
▁maiisip	-4893
▁makakat	-4894
▁marapat	-4895
▁matters	-4896
▁meaning	-4897
▁mention	-4898
▁mundong	-4899
▁namatay	-4900
▁pabalik	-4901
▁pagkata	-4902
▁palabas	-4903
▁parents	-4904
▁perform	-4905
▁predict	-4906
▁present	-4907
▁produce	-4908
▁quickly	-4909
▁rebecca	-4910
▁reflect	-4911
▁respect	-4912
▁sangkap	-4913
▁special	-4914
▁studies	-4915
▁stuxnet	-4916
▁sumulat	-4917
▁western	-4918
ahalagang	-4919
inescence	-4920
▁collabor	-4921
▁damdamin	-4922
▁dingding	-4923
▁dolyares	-4924
▁economic	-4925
▁emotions	-4926
▁epektibo	-4927
▁fighting	-4928
▁gestures	-4929
▁hundreds	-4930
▁hydrogen	-4931
▁industry	-4932
▁involved	-4933
▁kaharian	-4934
▁kamangha	-4935
▁kapansin	-4936
▁kinakain	-4937
▁kwalidad	-4938
▁lalagyan	-4939
▁leksiyon	-4940
▁maghanap	-4941
▁magician	-4942
▁makukuha	-4943
▁masamang	-4944
▁mawawala	-4945
▁mercedes	-4946
▁mistakes	-4947
▁nakakita	-4948
▁nakaraan	-4949
▁negative	-4950
▁ninanais	-4951
▁pagbabad	-4952
▁pagtulog	-4953
▁pangarap	-4954
▁progress	-4955
▁religion	-4956
▁sakaling	-4957
▁slightly	-4958
▁solution	-4959
▁sumasang	-4960
▁teachers	-4961
▁alexander	-4962
▁attention	-4963
▁champagne	-4964
▁chocolate	-4965
▁companies	-4966
▁deceptive	-4967
▁disappear	-4968
▁financial	-4969
▁greenland	-4970
▁happiness	-4971
▁herusalem	-4972
▁inglatera	-4973
▁introbers	-4974
▁jerusalem	-4975
▁kahihiyan	-4976
▁karaniwan	-4977
▁kasamaang	-4978
▁kinalaman	-4979
▁kondisyon	-4980
▁languages	-4981
▁literally	-4982
▁lumilikha	-4983
▁magkamali	-4984
▁magsasabi	-4985
▁matinding	-4986
▁nagbabago	-4987
▁naglalaro	-4988
▁nagpasiya	-4989
▁nakakapag	-4990
▁namamatay	-4991
▁natagpuan	-4992
▁operation	-4993
▁resistant	-4994
▁scientist	-4995
▁sinaunang	-4996
▁situation	-4997
▁suffering	-4998
▁summarize	-4999
▁thousands	-5000
▁tinkering	-5001
▁worldwide	-5002
▁babylonian	-5003
▁conference	-5004
▁definitely	-5005
▁developing	-5006
▁discovered	-5007
▁eventually	-5008
▁everywhere	-5009
▁individual	-5010
▁kalahating	-5011
▁karangalan	-5012
▁karaniwang	-5013
▁malikhaing	-5014
▁mapanganib	-5015
▁masalimuot	-5016
▁nagbibigay	-5017
▁pagbibigay	-5018
▁pagkukunan	-5019
▁pagsisikap	-5020
▁pambansang	-5021
▁produksyon	-5022
▁scientists	-5023
▁talambuhay	-5024
▁throughout	-5025
▁electricity	-5026
▁estatistika	-5027
▁kahalagahan	-5028
▁kasalukuyan	-5029
▁laboratoryo	-5030
▁nagpapakita	-5031
▁pagkakaroon	-5032
▁pambihirang	-5033
▁stimulation	-5034
▁superpowers	-5035
▁chemotherapy	-5036
▁introversion	-5037
▁katotohanang	-5038
▁nagtatrabaho	-5039
▁nakakamangha	-5040
▁nararamdaman	-5041
▁particularly	-5042
▁pinakamataas	-5043
▁pinakamahusay	-5044
▁nebuchadnezzar	-5045
▁bioluminescence	-5046
--	-5047
eg	-5048
ey	-5049
tz	-5050
xi	-5051
yr	-5052
400	-5053
arb	-5054
aso	-5055
att	-5056
ayl	-5057
bah	-5058
bin	-5059
bow	-5060
can	-5061
che	-5062
dro	-5063
eat	-5064
eet	-5065
enn	-5066
for	-5067
hib	-5068
ids	-5069
ilo	-5070
iyo	-5071
kan	-5072
lay	-5073
mas	-5074
men	-5075
met	-5076
mil	-5077
off	-5078
opt	-5079
pet	-5080
pro	-5081
reg	-5082
ror	-5083
sty	-5084
tug	-5085
udy	-5086
ulf	-5087
uyo	-5088
vid	-5089
▁eb	-5090
▁gl	-5091
▁ir	-5092
▁os	-5093
▁tv	-5094
▁wo	-5095
aand	-5096
ados	-5097
akad	-5098
akay	-5099
akib	-5100
alot	-5101
anaw	-5102
aser	-5103
atag	-5104
atid	-5105
berg	-5106
cket	-5107
crib	-5108
dyen	-5109
esta	-5110
esto	-5111
gins	-5112
half	-5113
inct	-5114
ipan	-5115
iram	-5116
ison	-5117
ives	-5118
iwas	-5119
laci	-5120
like	-5121
loob	-5122
more	-5123
nyan	-5124
olen	-5125
rain	-5126
resp	-5127
riga	-5128
room	-5129
taka	-5130
uced	-5131
ulin	-5132
ulug	-5133
umpt	-5134
uong	-5135
usga	-5136
ustr	-5137
uwid	-5138
wika	-5139
yano	-5140
yera	-5141
▁16,	-5142
▁aka	-5143
▁arr	-5144
▁aug	-5145
▁bom	-5146
▁buo	-5147
▁bur	-5148
▁due	-5149
▁dyn	-5150
▁emb	-5151
▁fix	-5152
▁fol	-5153
▁gut	-5154
▁hab	-5155
▁hap	-5156
▁hud	-5157
▁occ	-5158
▁ole	-5159
▁opp	-5160
▁pul	-5161
▁ran	-5162
▁ren	-5163
▁rus	-5164
▁shy	-5165
▁sri	-5166
▁ver	-5167
▁wak	-5168
▁wid	-5169
aayos	-5170
abing	-5171
agana	-5172
aliit	-5173
amnan	-5174
ances	-5175
anuns	-5176
arily	-5177
astic	-5178
bagay	-5179
bahay	-5180
benta	-5181
eksto	-5182
embre	-5183
eness	-5184
imens	-5185
iment	-5186
iring	-5187
itium	-5188
iusap	-5189
izing	-5190
lying	-5191
ossil	-5192
power	-5193
ropri	-5194
tangi	-5195
thers	-5196
ustom	-5197
utang	-5198
utely	-5199
works	-5200
▁2010	-5201
▁bene	-5202
▁bias	-5203
▁burn	-5204
▁buto	-5205
▁curi	-5206
▁dead	-5207
▁deal	-5208
▁diwa	-5209
▁fant	-5210
▁fear	-5211
▁foot	-5212
▁fort	-5213
▁fres	-5214
▁fuel	-5215
▁gave	-5216
▁gent	-5217
▁gods	-5218
▁guar	-5219
▁haba	-5220
▁hare	-5221
▁ipag	-5222
▁itim	-5223
▁late	-5224
▁lima	-5225
▁liye	-5226
▁load	-5227
▁mail	-5228
▁ment	-5229
▁napa	-5230
▁pand	-5231
▁pest	-5232
▁phen	-5233
▁rais	-5234
▁risk	-5235
▁runs	-5236
▁seat	-5237
▁shot	-5238
▁sige	-5239
▁simb	-5240
▁sust	-5241
▁tenn	-5242
▁trad	-5243
▁tren	-5244
▁upon	-5245
▁veil	-5246
▁vess	-5247
▁vill	-5248
abihan	-5249
aguhin	-5250
agulat	-5251
ahimik	-5252
akibat	-5253
alisan	-5254
alkula	-5255
anteng	-5256
asakit	-5257
awakan	-5258
awalan	-5259
ensive	-5260
esthet	-5261
galing	-5262
iction	-5263
ilbing	-5264
ilipas	-5265
illing	-5266
inggan	-5267
mangha	-5268
ording	-5269
please	-5270
struct	-5271
ucracy	-5272
ugtong	-5273
uridad	-5274
usapan	-5275
utusan	-5276
yosong	-5277
▁aabot	-5278
▁advan	-5279
▁agree	-5280
▁alyas	-5281
▁arabe	-5282
▁bakal	-5283
▁balak	-5284
▁beaut	-5285
▁bigla	-5286
▁blogs	-5287
▁board	-5288
▁calls	-5289
▁cases	-5290
▁cause	-5291
▁china	-5292
▁contr	-5293
▁daang	-5294
▁egypt	-5295
▁enter	-5296
▁glaci	-5297
▁grown	-5298
▁haven	-5299
▁ident	-5300
▁kalim	-5301
▁kapar	-5302
▁katao	-5303
▁kinds	-5304
▁least	-5305
▁legal	-5306
▁lumot	-5307
▁males	-5308
▁micro	-5309
▁motiv	-5310
▁nagtr	-5311
▁nakah	-5312
▁nanin	-5313
▁nanun	-5314
▁negat	-5315
▁older	-5316
▁optim	-5317
▁panig	-5318
▁patay	-5319
▁peace	-5320
▁pinip	-5321
▁pract	-5322
▁pumip	-5323
▁rapid	-5324
▁react	-5325
▁reput	-5326
▁rosas	-5327
▁sales	-5328
▁saved	-5329
▁sayaw	-5330
▁separ	-5331
▁serve	-5332
▁shake	-5333
▁shows	-5334
▁siyam	-5335
▁spect	-5336
▁spray	-5337
▁stars	-5338
▁sugar	-5339
▁sukat	-5340
▁sumis	-5341
▁sumus	-5342
▁timog	-5343
▁truly	-5344
▁tsina	-5345
▁tugon	-5346
▁tumut	-5347
▁tweet	-5348
▁walls	-5349
▁wants	-5350
abahong	-5351
alamang	-5352
angahas	-5353
anunsyo	-5354
apanood	-5355
drodyen	-5356
ikadong	-5357
ilities	-5358
imulang	-5359
ination	-5360
ivalent	-5361
iwalaan	-5362
iwalang	-5363
liespot	-5364
ography	-5365
orasyon	-5366
riculum	-5367
tracted	-5368
ugaling	-5369
ukwento	-5370
unahang	-5371
ungkahi	-5372
ungusap	-5373
ustuhan	-5374
ustuhin	-5375
uturing	-5376
▁academ	-5377
▁action	-5378
▁actual	-5379
▁africa	-5380
▁aleman	-5381
▁altern	-5382
▁anuman	-5383
▁attend	-5384
▁author	-5385
▁ayusin	-5386
▁belief	-5387
▁bolunt	-5388
▁bridge	-5389
▁career	-5390
▁convin	-5391
▁corner	-5392
▁corpor	-5393
▁custom	-5394
▁daliri	-5395
▁dating	-5396
▁design	-5397
▁dinala	-5398
▁drives	-5399
▁easily	-5400
▁eating	-5401
▁estudy	-5402
▁expert	-5403
▁farmer	-5404
▁fossil	-5405
▁gawing	-5406
▁george	-5407
▁giving	-5408
▁inisip	-5409
▁iniwan	-5410
▁interp	-5411
▁intuit	-5412
▁itself	-5413
▁jewish	-5414
▁kamera	-5415
▁karera	-5416
▁kasong	-5417
▁kompos	-5418
▁kulang	-5419
▁kumain	-5420
▁larger	-5421
▁ligtas	-5422
▁magsis	-5423
▁mahika	-5424
▁makata	-5425
▁malaya	-5426
▁murder	-5427
▁naghih	-5428
▁nobela	-5429
▁origin	-5430
▁pagkab	-5431
▁pagmum	-5432
▁pahina	-5433
▁palagi	-5434
▁panlip	-5435
▁player	-5436
▁posted	-5437
▁rating	-5438
▁remind	-5439
▁secret	-5440
▁seeing	-5441
▁shapes	-5442
▁shovel	-5443
▁stolen	-5444
▁strong	-5445
▁struct	-5446
▁sumali	-5447
▁supply	-5448
▁taglay	-5449
▁talked	-5450
▁taught	-5451
▁tauhan	-5452
▁teksto	-5453
▁templo	-5454
▁thanks	-5455
▁travel	-5456
▁turkey	-5457
▁unique	-5458
▁writer	-5459
akatuwid	-5460
alakayin	-5461
anggihan	-5462
apatuloy	-5463
entially	-5464
▁achieve	-5465
▁address	-5466
▁anymore	-5467
▁aparato	-5468
▁artista	-5469
▁atomika	-5470
▁attacks	-5471
▁bahagya	-5472
▁batayan	-5473
▁creates	-5474
▁economy	-5475
▁emotion	-5476
▁entered	-5477
▁estados	-5478
▁exploit	-5479
▁fellows	-5480
▁finding	-5481
▁freedom	-5482
▁griyego	-5483
▁growing	-5484
▁hadlang	-5485
▁humingi	-5486
▁intelih	-5487
▁kasabay	-5488
▁kawalan	-5489
▁killing	-5490
▁kumilos	-5491
▁kumpara	-5492
▁leaving	-5493
▁litrato	-5494
▁liyebre	-5495
▁mabigat	-5496
▁mabuhay	-5497
▁malalim	-5498
▁malusog	-5499
▁mamatay	-5500
▁marinig	-5501
▁mismong	-5502
▁moments	-5503
▁muscles	-5504
▁mystery	-5505
▁nagsabi	-5506
▁nariyan	-5507
▁naunang	-5508
▁ninyong	-5509
▁opinion	-5510
▁outside	-5511
▁paglaki	-5512
▁peoples	-5513
▁persist	-5514
▁pinakab	-5515
▁popular	-5516
▁private	-5517
▁putting	-5518
▁rainbow	-5519
▁reaktor	-5520
▁sampung	-5521
▁sanggol	-5522
▁sentido	-5523
▁shallow	-5524
▁showing	-5525
▁summary	-5526
▁sumubok	-5527
▁tatakbo	-5528
▁tritium	-5529
▁trityum	-5530
▁tumungo	-5531
▁unibers	-5532
▁various	-5533
▁vasquez	-5534
▁waiting	-5535
▁worried	-5536
important	-5537
▁billions	-5538
▁brothers	-5539
▁contempt	-5540
▁drinking	-5541
▁entirely	-5542
▁follower	-5543
▁industri	-5544
▁inspired	-5545
▁instance	-5546
▁invented	-5547
▁isinulat	-5548
▁kalamnan	-5549
▁kaunting	-5550
▁listahan	-5551
▁lumalaki	-5552
▁makakuha	-5553
▁makapags	-5554
▁maniwala	-5555
▁nagagawa	-5556
▁nagsulat	-5557
▁networks	-5558
▁opportun	-5559
▁painting	-5560
▁palaging	-5561
▁pansinin	-5562
▁persyano	-5563
▁pipiliin	-5564
▁positive	-5565
▁powerful	-5566
▁prepared	-5567
▁previous	-5568
▁produkto	-5569
▁projects	-5570
▁received	-5571
▁relevant	-5572
▁response	-5573
▁sinumang	-5574
▁standing	-5575
▁suddenly	-5576
▁tanungin	-5577
▁telepono	-5578
▁tindahan	-5579
ahalagahan	-5580
ologically	-5581
▁afterward	-5582
▁apartment	-5583
▁augmented	-5584
▁babaguhin	-5585
▁backwards	-5586
▁basurahan	-5587
▁certainly	-5588
▁chemicals	-5589
▁concerned	-5590
▁countries	-5591
▁entertain	-5592
▁fundament	-5593
▁gagamitin	-5594
▁generally	-5595
▁inaasahan	-5596
▁kalawakan	-5597
▁kamatayan	-5598
▁karagatan	-5599
▁kaugnayan	-5600
▁konteksto	-5601
▁kuwadrado	-5602
▁makalikha	-5603
▁maririnig	-5604
▁masyadong	-5605
▁organized	-5606
▁pagbabasa	-5607
▁pagtuturo	-5608
▁pamilihan	-5609
▁pangalawa	-5610
▁president	-5611
▁principle	-5612
▁pulitikal	-5613
▁sandaling	-5614
▁seguridad	-5615
▁sinimulan	-5616
▁spreading	-5617
▁strangers	-5618
▁tanggapin	-5619
▁transform	-5620
▁tsokolate	-5621
▁absolutely	-5622
▁asignatura	-5623
▁background	-5624
▁challenges	-5625
▁considered	-5626
▁curriculum	-5627
▁gugustuhin	-5628
▁haydrodyen	-5629
▁importante	-5630
▁incredible	-5631
▁interested	-5632
▁liespotter	-5633
▁magkaibang	-5634
▁makatwiran	-5635
▁nagtatapos	-5636
▁napakalaki	-5637
▁negatibong	-5638
▁pagmamahal	-5639
▁pananalita	-5640
▁perpektong	-5641
▁proyektong	-5642
▁psychology	-5643
▁rebolusyon	-5644
▁superpower	-5645
▁surprising	-5646
▁cephalopods	-5647
▁complicated	-5648
▁differences	-5649
▁introverted	-5650
▁liespotters	-5651
▁nagkakamali	-5652
▁nagpapababa	-5653
▁nagsasalita	-5654
▁nagsisimula	-5655
▁nakalimutan	-5656
▁nakararanas	-5657
▁pagsasalita	-5658
▁personality	-5659
▁researchers	-5660
▁samakatuwid	-5661
▁siyentipiko	-5662
▁temperatura	-5663
▁contemporary	-5664
▁kinailangang	-5665
▁mahahalagang	-5666
▁pagtatanghal	-5667
▁international	-5668
▁introbersiyon	-5669
▁pagsasaliksik	-5670
▁understanding	-5671
▁unfortunately	-5672
▁magsinungaling	-5673
▁pangkalahatang	-5674
▁characteristics	-5675
-2	-5676
.3	-5677
1.	-5678
39	-5679
5.	-5680
ca	-5681
ww	-5682
aas	-5683
avy	-5684
dok	-5685
ech	-5686
erv	-5687
exe	-5688
fri	-5689
gel	-5690
hov	-5691
iam	-5692
ife	-5693
ify	-5694
ilt	-5695
iol	-5696
kto	-5697
log	-5698
mar	-5699
),	-5700
.'	-5701
99	-5702
fr	-5703
ps	-5704
aat	-5705
ban	-5706
ief	-5707
isc	-5708
mor	-5709
nat	-5710
oes	-5711
ogg	-5712
omi	-5713
oro	-5714
oth	-5715
oub	-5716
oul	-5717
rah	-5718
see	-5719
set	-5720
sum	-5721
tad	-5722
tao	-5723
ubh	-5724
ubo	-5725
uma	-5726
usb	-5727
uwa	-5728
xic	-5729
zni	-5730
▁1,	-5731
▁23	-5732
▁60	-5733
▁62	-5734
▁64	-5735
▁av	-5736
▁od	-5737
▁sn	-5738
..."	-5739
9.50	-5740
alib	-5741
alip	-5742
amay	-5743
amba	-5744
amel	-5745
ames	-5746
arak	-5747
awit	-5748
back	-5749
ball	-5750
bled	-5751
ceed	-5752
clic	-5753
comp	-5754
conn	-5755
deed	-5756
doch	-5757
edia	-5758
ekto	-5759
ener	-5760
enez	-5761
ergy	-5762
fect	-5763
fish	-5764
gala	-5765
ging	-5766
hand	-5767
hane	-5768
here	-5769
hern	-5770
hiyo	-5771
hole	-5772
houd	-5773
hour	-5774
iate	-5775
icul	-5776
iful	-5777
ilid	-5778
illa	-5779
inea	-5780
ipis	-5781
ised	-5782
isin	-5783
ispl	-5784
itor	-5785
itte	-5786
iyum	-5787
keng	-5788
kwel	-5789
laut	-5790
lima	-5791
look	-5792
medi	-5793
mers	-5794
mine	-5795
ners	-5796
nion	-5797
obby	-5798
oids	-5799
15	-5800
af	-5801
cl	-5802
dr	-5803
hr	-5804
yd	-5805
bia	-5806
een	-5807
ein	-5808
ini	-5809
isy	-5810
mag	-5811
opp	-5812
ote	-5813
ukt	-5814
wal	-5815
yle	-5816
▁45	-5817
▁ic	-5818
▁ig	-5819
▁ny	-5820
akak	-5821
asus	-5822
ches	-5823
ened	-5824
eren	-5825
mber	-5826
oint	-5827
oken	-5828
oong	-5829
orma	-5830
orth	-5831
osem	-5832
osph	-5833
over	-5834
pack	-5835
pang	-5836
rate	-5837
reng	-5838
rier	-5839
rika	-5840
roll	-5841
ship	-5842
taon	-5843
ubat	-5844
ucks	-5845
uela	-5846
ufus	-5847
uous	-5848
utin	-5849
utya	-5850
uwal	-5851
vely	-5852
walk	-5853
wang	-5854
▁191	-5855
▁192	-5856
▁2.3	-5857
▁500	-5858
▁539	-5859
▁abu	-5860
▁bay	-5861
▁ber	-5862
▁buy	-5863
▁cry	-5864
▁dib	-5865
▁doc	-5866
▁dud	-5867
▁fbi	-5868
▁fem	-5869
▁gay	-5870
▁gib	-5871
▁gol	-5872
▁hah	-5873
▁hem	-5874
▁hey	-5875
▁hil	-5876
▁hod	-5877
▁hom	-5878
▁huh	-5879
▁hur	-5880
▁ini	-5881
▁joy	-5882
▁jun	-5883
▁kis	-5884
▁kok	-5885
▁kur	-5886
▁mau	-5887
▁mim	-5888
▁mos	-5889
▁nau	-5890
▁nir	-5891
▁oxy	-5892
▁plc	-5893
▁pon	-5894
▁pun	-5895
▁qui	-5896
▁rar	-5897
▁sen	-5898
▁shr	-5899
▁sip	-5900
▁spl	-5901
▁sug	-5902
▁tax	-5903
▁tor	-5904
▁tuk	-5905
▁tut	-5906
▁unk	-5907
▁vac	-5908
▁voc	-5909
▁vul	-5910
▁wel	-5911
▁xen	-5912
,000.	-5913
aaway	-5914
agdan	-5915
aheng	-5916
ainam	-5917
alaya	-5918
alian	-5919
alize	-5920
ambak	-5921
angal	-5922
anyag	-5923
arden	-5924
arito	-5925
asaad	-5926
asaan	-5927
asawa	-5928
asing	-5929
asion	-5930
astas	-5931
asted	-5932
atang	-5933
atnan	-5934
atter	-5935
awain	-5936
aylor	-5937
bigay	-5938
board	-5939
briga	-5940
buhay	-5941
chest	-5942
clean	-5943
cohen	-5944
ekhov	-5945
eless	-5946
elyum	-5947
endor	-5948
erocy	-5949
essee	-5950
estat	-5951
esyal	-5952
ethel	-5953
fully	-5954
gebra	-5955
ghiya	-5956
ginia	-5957
hesis	-5958
ialam	-5959
ifies	-5960
ihing	-5961
imili	-5962
ingay	-5963
insip	-5964
insky	-5965
inton	-5966
inuan	-5967
ipede	-5968
itive	-5969
iwaga	-5970
iyaga	-5971
iyain	-5972
iyano	-5973
lamig	-5974
lated	-5975
light	-5976
mahal	-5977
okong	-5978
ondon	-5979
ophon	-5980
oseph	-5981
rastr	-5982
ritte	-5983
round	-5984
selor	-5985
think	-5986
uddha	-5987
uegel	-5988
unami	-5989
ungat	-5990
upong	-5991
ureyn	-5992
uriin	-5993
uruan	-5994
uyang	-5995
ylogg	-5996
zniak	-5997
▁2003	-5998
▁adhd	-5999
▁agen	-6000
▁alak	-6001
▁area	-6002
▁asul	-6003
▁ayan	-6004
▁ayun	-6005
▁beat	-6006
▁bike	-6007
▁biro	-6008
▁bono	-6009
▁crit	-6010
▁desk	-6011
▁drop	-6012
▁dulo	-6013
▁ebol	-6014
▁erin	-6015
▁expl	-6016
▁febr	-6017
▁fine	-6018
▁fish	-6019
▁gain	-6020
▁gall	-6021
▁gant	-6022
▁geek	-6023
▁gone	-6024
▁grab	-6025
▁hans	-6026
▁herb	-6027
▁horm	-6028
▁hurt	-6029
▁iisa	-6030
▁ilaw	-6031
▁itat	-6032
▁jail	-6033
▁jain	-6034
▁jean	-6035
▁jeff	-6036
▁jobs	-6037
▁join	-6038
▁joke	-6039
▁judg	-6040
▁kala	-6041
▁kamp	-6042
▁kand	-6043
▁kore	-6044
▁korp	-6045
▁lama	-6046
▁lamp	-6047
▁lane	-6048
▁lawa	-6049
▁lied	-6050
▁lith	-6051
▁lone	-6052
▁lord	-6053
▁loud	-6054
▁mesa	-6055
▁mine	-6056
▁miro	-6057
▁naib	-6058
▁naku	-6059
▁nanl	-6060
▁ohhh	-6061
▁onto	-6062
▁pare	-6063
▁penn	-6064
▁pina	-6065
▁pink	-6066
▁pusa	-6067
▁quar	-6068
▁rene	-6069
▁rito	-6070
▁road	-6071
▁rome	-6072
▁rule	-6073
▁safe	-6074
▁sang	-6075
▁seek	-6076
▁sell	-6077
▁sexy	-6078
▁sink	-6079
▁sout	-6080
▁spam	-6081
▁stan	-6082
▁temp	-6083
▁town	-6084
▁trem	-6085
▁unti	-6086
▁uran	-6087
▁viol	-6088
▁wird	-6089
▁wood	-6090
▁zoro	-6091
agalaw	-6092
ahanga	-6093
ahasan	-6094
akaran	-6095
alapit	-6096
alasan	-6097
aliban	-6098
amahan	-6099
amatic	-6100
anayan	-6101
aryong	-6102
asanay	-6103
ashion	-6104
asidad	-6105
asikat	-6106
bisyon	-6107
brecht	-6108
double	-6109
ensyon	-6110
enteng	-6111
eridge	-6112
ernity	-6113
friday	-6114
friend	-6115
halers	-6116
hemplo	-6117
houdin	-6118
icking	-6119
idente	-6120
imitry	-6121
ipment	-6122
irapan	-6123
isukat	-6124
itigan	-6125
iwasan	-6126
iyento	-6127
lished	-6128
manent	-6129
mental	-6130
milyon	-6131
ources	-6132
pareho	-6133
perger	-6134
ranean	-6135
ressed	-6136
twater	-6137
ulated	-6138
umpara	-6139
umpati	-6140
ungang	-6141
untang	-6142
uparan	-6143
usayan	-6144
walang	-6145
yamang	-6146
▁1,000	-6147
▁2011.	-6148
▁above	-6149
▁ahmed	-6150
▁alang	-6151
▁ayoko	-6152
▁balat	-6153
▁balik	-6154
▁baliw	-6155
▁banda	-6156
▁baron	-6157
▁basic	-6158
▁batay	-6159
▁batid	-6160
▁began	-6161
▁benef	-6162
▁birke	-6163
▁birth	-6164
▁bread	-6165
▁breat	-6166
▁breed	-6167
▁built	-6168
▁bukod	-6169
▁bunga	-6170
▁butas	-6171
▁casey	-6172
▁cents	-6173
▁chart	-6174
▁chron	-6175
▁cispl	-6176
▁claim	-6177
▁cohen	-6178
▁cover	-6179
▁crash	-6180
▁cross	-6181
▁dalai	-6182
▁delay	-6183
▁diane	-6184
▁downs	-6185
▁dumad	-6186
▁dynam	-6187
▁enorm	-6188
▁etong	-6189
▁exhal	-6190
▁faced	-6191
▁falls	-6192
▁final	-6193
▁force	-6194
▁freud	-6195
▁galaw	-6196
▁galit	-6197
▁games	-6198
▁gangs	-6199
▁ginag	-6200
▁girls	-6201
▁graph	-6202
▁guide	-6203
▁gyera	-6204
▁hello	-6205
▁henry	-6206
▁hobby	-6207
▁humih	-6208
▁husto	-6209
▁hyper	-6210
▁hypot	-6211
▁imahe	-6212
▁imper	-6213
▁input	-6214
▁istat	-6215
▁kahoy	-6216
▁kalug	-6217
▁kanan	-6218
▁katap	-6219
▁kilos	-6220
▁laure	-6221
▁lebel	-6222
▁likas	-6223
▁lokal	-6224
▁maaga	-6225
▁madla	-6226
▁maiba	-6227
▁maigi	-6228
▁makap	-6229
▁makik	-6230
▁mangg	-6231
▁mapak	-6232
▁marco	-6233
▁marka	-6234
▁mater	-6235
▁misha	-6236
▁museo	-6237
▁nagbe	-6238
▁nanan	-6239
▁naomi	-6240
▁neuro	-6241
▁ngayo	-6242
▁north	-6243
▁nucle	-6244
▁opium	-6245
▁pader	-6246
▁palat	-6247
▁pangg	-6248
▁panin	-6249
▁papua	-6250
▁pinat	-6251
▁prans	-6252
▁prize	-6253
▁putik	-6254
▁pwers	-6255
▁queen	-6256
▁rabbi	-6257
▁raise	-6258
▁roger	-6259
▁roots	-6260
▁rufus	-6261
▁ruler	-6262
▁sabay	-6263
▁sakop	-6264
▁sanay	-6265
▁santa	-6266
▁sarah	-6267
▁scary	-6268
▁sinas	-6269
▁sixth	-6270
▁spoke	-6271
▁squid	-6272
▁stuck	-6273
▁sulat	-6274
▁tatay	-6275
▁tempt	-6276
▁throw	-6277
▁tipak	-6278
▁titan	-6279
▁toler	-6280
▁tumat	-6281
▁tumit	-6282
▁tungk	-6283
▁ultim	-6284
▁upuan	-6285
▁urban	-6286
▁venez	-6287
▁weren	-6288
▁yosem	-6289
abahagi	-6290
adaling	-6291
agdagan	-6292
ainable	-6293
aksihan	-6294
alalang	-6295
alingan	-6296
alitang	-6297
alities	-6298
amaneho	-6299
asaklaw	-6300
brigade	-6301
elandic	-6302
hington	-6303
ikasyon	-6304
intahan	-6305
ipisyal	-6306
iveness	-6307
osphere	-6308
tlefish	-6309
ulangan	-6310
ulugang	-6311
▁25,000	-6312
▁advent	-6313
▁affect	-6314
▁afford	-6315
▁alamin	-6316
▁alaska	-6317
▁amines	-6318
▁arrang	-6319
▁aspect	-6320
▁asthma	-6321
▁bababa	-6322
▁babies	-6323
▁bagang	-6324
▁begins	-6325
▁bigger	-6326
▁bitbit	-6327
▁bituin	-6328
▁bother	-6329
▁brains	-6330
▁buddha	-6331
▁bumili	-6332
▁bundok	-6333
▁causes	-6334
▁choose	-6335
▁commit	-6336
▁compos	-6337
▁dagdag	-6338
▁dalhin	-6339
▁dalubh	-6340
▁dancer	-6341
▁daniel	-6342
▁declar	-6343
▁despot	-6344
▁direct	-6345
▁domain	-6346
▁dreams	-6347
▁dumalo	-6348
▁during	-6349
▁easier	-6350
▁effort	-6351
▁encour	-6352
▁entabl	-6353
▁enters	-6354
▁facing	-6355
▁fascin	-6356
▁father	-6357
▁filled	-6358
▁forget	-6359
▁france	-6360
▁gabing	-6361
▁ganyan	-6362
▁garden	-6363
▁gastos	-6364
▁gentle	-6365
▁ground	-6366
▁guinea	-6367
▁hacked	-6368
▁halika	-6369
▁hangga	-6370
▁harder	-6371
▁height	-6372
▁helped	-6373
▁helyum	-6374
▁heroes	-6375
▁ibahin	-6376
▁immedi	-6377
▁indeed	-6378
▁ipinag	-6379
▁ipinap	-6380
▁issues	-6381
▁isyung	-6382
▁joseph	-6383
▁kabila	-6384
▁kakain	-6385
▁kaliwa	-6386
▁kanais	-6387
▁kanser	-6388
▁kapaki	-6389
▁krisis	-6390
▁laging	-6391
▁lalong	-6392
▁leaves	-6393
▁lehman	-6394
▁lesson	-6395
▁lityum	-6396
▁london	-6397
▁lovely	-6398
▁lupain	-6399
▁magawa	-6400
▁magbab	-6401
▁magmum	-6402
▁magnet	-6403
▁makina	-6404
▁marker	-6405
▁market	-6406
▁masabi	-6407
▁mawari	-6408
▁memoir	-6409
▁method	-6410
▁models	-6411
▁mortal	-6412
▁naglal	-6413
▁nagsus	-6414
▁nanalo	-6415
▁natuto	-6416
▁ninuno	-6417
▁normal	-6418
▁norman	-6419
▁pagbuo	-6420
▁pagnan	-6421
▁pagpup	-6422
▁pagsis	-6423
▁pantas	-6424
▁pareho	-6425
▁partly	-6426
▁passed	-6427
▁pekeng	-6428
▁persep	-6429
▁physic	-6430
▁pinagb	-6431
▁pinagd	-6432
▁pinagh	-6433
▁pinagm	-6434
▁pinagp	-6435
▁pinost	-6436
▁places	-6437
▁police	-6438
▁puwede	-6439
▁region	-6440
▁saklaw	-6441
▁samara	-6442
▁samuel	-6443
▁search	-6444
▁server	-6445
▁stands	-6446
▁stress	-6447
▁sumama	-6448
▁taking	-6449
▁talent	-6450
▁taylor	-6451
▁teorya	-6452
▁tiwala	-6453
▁toward	-6454
▁truths	-6455
▁tuklas	-6456
▁tuldok	-6457
▁ukrain	-6458
▁useful	-6459
▁vendor	-6460
▁vulner	-6461
▁witten	-6462
▁worlds	-6463
▁yureyn	-6464
abalahan	-6465
alakihan	-6466
anggitin	-6467
computer	-6468
controll	-6469
esthetic	-6470
etheless	-6471
galactic	-6472
ibilidad	-6473
itingnan	-6474
olohikal	-6475
ranghero	-6476
sourcing	-6477
yloggers	-6478
▁algebra	-6479
▁animals	-6480
▁assumpt	-6481
▁babalik	-6482
▁balakid	-6483
▁bansang	-6484
▁barrier	-6485
▁brother	-6486
▁bruegel	-6487
▁bumubuo	-6488
▁capable	-6489
▁chekhov	-6490
▁choices	-6491
▁clinton	-6492
▁contain	-6493
▁deceive	-6494
▁decrypt	-6495
▁despite	-6496
▁dimitry	-6497
▁dudamel	-6498
▁edwards	-6499
▁element	-6500
▁encrypt	-6501
▁england	-6502
▁gaspang	-6503
▁ginamit	-6504
▁ginoong	-6505
▁granted	-6506
▁gustavo	-6507
▁hanapin	-6508
▁healthy	-6509
▁highest	-6510
▁isiping	-6511
▁journey	-6512
▁justice	-6513
▁karapat	-6514
▁komport	-6515
▁kumusta	-6516
▁kunstpr	-6517
▁kunwari	-6518
▁lithium	-6519
▁liwanag	-6520
▁malinis	-6521
▁massive	-6522
▁matapat	-6523
▁matupad	-6524
▁mediter	-6525
▁meeting	-6526
▁melting	-6527
▁methane	-6528
▁michael	-6529
▁murdoch	-6530
▁naalala	-6531
▁nahanap	-6532
▁nangang	-6533
▁napakat	-6534
▁nations	-6535
▁negosyo	-6536
▁niestat	-6537
▁objects	-6538
▁opisyal	-6539
▁orchest	-6540
▁organis	-6541
▁pagkuha	-6542
▁pagsabi	-6543
▁pamagat	-6544
▁panayam	-6545
▁patayin	-6546
▁pigilan	-6547
▁pisikal	-6548
▁planeta	-6549
▁playing	-6550
▁prinsip	-6551
▁protina	-6552
▁puntong	-6553
▁pupunta	-6554
▁rehiyon	-6555
▁repower	-6556
▁respond	-6557
▁ridicul	-6558
▁runnion	-6559
▁sakahan	-6560
▁simulan	-6561
▁somehow	-6562
▁species	-6563
▁stopped	-6564
▁strange	-6565
▁suggest	-6566
▁tandaan	-6567
▁tempest	-6568
▁theater	-6569
▁toasted	-6570
▁totally	-6571
▁trained	-6572
▁trouble	-6573
▁trusted	-6574
▁tsunami	-6575
▁tumigil	-6576
▁twitter	-6577
▁unawain	-6578
▁uranium	-6579
▁usaping	-6580
▁usually	-6581
▁vessels	-6582
▁village	-6583
▁walking	-6584
▁wastong	-6585
▁weekend	-6586
▁whereas	-6587
▁windows	-6588
▁wozniak	-6589
alization	-6590
amanghang	-6591
connected	-6592
erocyclic	-6593
extrovert	-6594
▁academic	-6595
▁addition	-6596
▁advanced	-6597
▁albrecht	-6598
▁asperger	-6599
▁bahagdan	-6600
▁bahaging	-6601
▁behavior	-6602
▁binibini	-6603
▁colombia	-6604
▁communic	-6605
▁contract	-6606
▁controll	-6607
▁creation	-6608
▁disorder	-6609
▁document	-6610
▁dramatic	-6611
▁eksperto	-6612
▁engineer	-6613
▁espesyal	-6614
▁exciting	-6615
▁famously	-6616
▁february	-6617
▁feedback	-6618
▁freshman	-6619
▁gangster	-6620
▁gayunman	-6621
▁genetics	-6622
▁greatest	-6623
▁guarante	-6624
▁halagang	-6625
▁hormones	-6626
▁identity	-6627
▁ikuwento	-6628
▁increase	-6629
▁inhalers	-6630
▁inilagay	-6631
▁instinct	-6632
▁interpol	-6633
▁investig	-6634
▁ipininta	-6635
▁iranians	-6636
▁kaakibat	-6637
▁kalaunan	-6638
▁kaniyang	-6639
▁katinuan	-6640
▁kautusan	-6641
▁kawalang	-6642
▁lalaking	-6643
▁magbayad	-6644
▁magritte	-6645
▁mahuhuli	-6646
▁maikling	-6647
▁majority	-6648
▁makagawa	-6649
▁makitang	-6650
▁malamang	-6651
▁mamimili	-6652
▁mapansin	-6653
▁marunong	-6654
▁momentum	-6655
▁multiple	-6656
▁naaalala	-6657
▁nakagawa	-6658
▁nakapags	-6659
▁nakasaad	-6660
▁nakatago	-6661
▁nakatira	-6662
▁nanunood	-6663
▁napanood	-6664
▁nawawala	-6665
▁neighbor	-6666
▁pagkatao	-6667
▁paglipat	-6668
▁pagmamay	-6669
▁pagtukoy	-6670
▁paningin	-6671
▁paniwala	-6672
▁patterns	-6673
▁persians	-6674
▁physical	-6675
▁pinanood	-6676
▁pleasure	-6677
▁portable	-6678
▁possibly	-6679
▁pressure	-6680
▁profound	-6681
▁programa	-6682
▁properly	-6683
▁realidad	-6684
▁resource	-6685
▁sentence	-6686
▁sidewalk	-6687
▁sigurado	-6688
▁solitude	-6689
▁southern	-6690
▁standard	-6691
▁starting	-6692
▁stations	-6693
▁steroids	-6694
▁surprise	-6695
▁tagapags	-6696
▁taglamig	-6697
▁tedsters	-6698
▁titingin	-6699
▁tuluyang	-6700
▁tutulong	-6701
▁umuurong	-6702
▁violence	-6703
▁virginia	-6704
▁wormhole	-6705
▁xenophon	-6706
▁yosemite	-6707
imensional	-6708
pakinabang	-6709
▁according	-6710
▁amerikano	-6711
▁animnaput	-6712
▁attendant	-6713
▁banggitin	-6714
▁centipede	-6715
▁cisplatin	-6716
▁coleridge	-6717
▁continent	-6718
▁counselor	-6719
▁creatures	-6720
▁currently	-6721
▁ebolusyon	-6722
▁effective	-6723
▁emotional	-6724
▁energhiya	-6725
▁equipment	-6726
▁evolution	-6727
▁exception	-6728
▁followers	-6729
▁following	-6730
▁happening	-6731
▁healthier	-6732
▁icelandic	-6733
▁ikalawang	-6734
▁kadalasan	-6735
▁kapasidad	-6736
▁karahasan	-6737
▁kasanayan	-6738
▁magbabago	-6739
▁magicians	-6740
▁magsimula	-6741
▁magtanong	-6742
▁mahihirap	-6743
▁makakapag	-6744
▁makikipag	-6745
▁mentioned	-6746
▁motivated	-6747
▁nagtuturo	-6748
▁nanloloko	-6749
▁natatapos	-6750
▁naunawaan	-6751
▁necessary	-6752
▁negosyong	-6753
▁pagluluto	-6754
▁pamumuhay	-6755
▁papuntang	-6756
▁parisukat	-6757
▁paternity	-6758
▁patunayan	-6759
▁pinagsama	-6760
▁pinakamag	-6761
▁protinang	-6762
▁pumipigil	-6763
▁purchaser	-6764
▁recognize	-6765
▁religious	-6766
▁resources	-6767
▁saltwater	-6768
▁sinusulat	-6769
▁surprised	-6770
▁talakayin	-6771
▁talumpati	-6772
▁tennessee	-6773
▁trabahong	-6774
▁venezuela	-6775
▁artipisyal	-6776
▁atmosphere	-6777
▁boluntaryo	-6778
▁capacities	-6779
▁compassion	-6780
▁cuttlefish	-6781
▁darkmarket	-6782
▁equivalent	-6783
▁exhalation	-6784
▁experiment	-6785
▁herbicides	-6786
▁hinihiling	-6787
▁hypothesis	-6788
▁interesado	-6789
▁interviews	-6790
▁islamikong	-6791
▁kagamitang	-6792
▁kakulangan	-6793
▁kapitbahay	-6794
▁karunungan	-6795
▁keyloggers	-6796
▁kompositor	-6797
▁magdudulot	-6798
▁makabagong	-6799
▁makakagawa	-6800
▁mamamayang	-6801
▁matagumpay	-6802
▁nadiskubre	-6803
▁nagbebenta	-6804
▁nagdudulot	-6805
▁naghahanap	-6806
▁nagsasanib	-6807
▁nakakakuha	-6808
▁nakikilala	-6809
▁nanggaling	-6810
▁napagtanto	-6811
▁natitirang	-6812
▁operations	-6813
▁pagkahabag	-6814
▁paglaganap	-6815
▁pagtanggal	-6816
▁pagtanggap	-6817
▁pagtatapos	-6818
▁pagtitipon	-6819
▁pakikipagt	-6820
▁pamantasan	-6821
▁panginoong	-6822
▁pesticides	-6823
▁populasyon	-6824
▁population	-6825
▁porsiyento	-6826
▁positively	-6827
▁produktong	-6828
▁professors	-6829
▁redbrigade	-6830
▁represents	-6831
▁siguradong	-6832
▁sikolohiya	-6833
▁tastemaker	-6834
▁trickiness	-6835
▁ultimately	-6836
▁washington	-6837
▁workplaces	-6838
▁yureyniyum	-6839
apangyarihan	-6840
▁application	-6841
▁association	-6842
▁bureaucracy	-6843
▁differently	-6844
▁estranghero	-6845
▁experiences	-6846
▁fundamental	-6847
▁genetically	-6848
▁illusionist	-6849
▁immediately	-6850
▁institusyon	-6851
▁institution	-6852
▁interactive	-6853
▁inumpisahan	-6854
▁itinuturing	-6855
▁kababaihang	-6856
▁kalalakihan	-6857
▁katanungang	-6858
▁kinalabasan	-6859
▁korporasyon	-6860
▁mababawasan	-6861
▁magtagumpay	-6862
▁makatwirang	-6863
▁nababawasan	-6864
▁nakalilipas	-6865
▁napapangiti	-6866
▁natatanging	-6867
▁nonetheless	-6868
▁opportunity	-6869
▁pagkakamali	-6870
▁palatandaan	-6871
▁pangungusap	-6872
▁participate	-6873
▁probability	-6874
▁proposition	-6875
▁responsible	-6876
▁supermarket	-6877
▁tastemakers	-6878
▁tinitingnan	-6879
▁unibersidad	-6880
▁applications	-6881
▁heterocyclic	-6882
▁intelihensya	-6883
▁interactions	-6884
▁magmumukhang	-6885
▁maipaliwanag	-6886
▁makakatulong	-6887
▁mananalaysay	-6888
▁nagsisilbing	-6889
▁napakalaking	-6890
▁pinakamainam	-6891
▁satisfaction	-6892
▁chemotheraphy	-6893
▁demonstration	-6894
▁entertainment	-6895
▁environmental	-6896
▁interestingly	-6897
▁intergalactic	-6898
▁magtatagumpay	-6899
▁mediterranean	-6900
▁nagtratrabaho	-6901
▁napakagandang	-6902
▁psychological	-6903
▁relationships	-6904
▁technological	-6905
▁pinakamagaling	-6906
▁pangangailangan	-6907
▁pinahahalagahan	-6908
▁pinakamagandang	-6909
ti	-6910
-20	-6911
aly	-6912
ask	-6913
def	-6914
eer	-6915
ese	-6916
hus	-6917
icy	-6918
iod	-6919
mer	-6920
ola	-6921
rog	-6922
sch	-6923
sey	-6924
sup	-6925
sus	-6926
top	-6927
uho	-6928
vah	-6929
why	-6930
yak	-6931
▁11	-6932
▁12	-6933
▁31	-6934
▁4,	-6935
▁6,	-6936
▁uy	-6937
aang	-6938
abog	-6939
adya	-6940
agog	-6941
aint	-6942
alse	-6943
amak	-6944
ampu	-6945
anka	-6946
asya	-6947
bins	-6948
cend	-6949
cery	-6950
cies	-6951
cook	-6952
daan	-6953
dang	-6954
ehry	-6955
ferr	-6956
ffee	-6957
hers	-6958
ials	-6959
ibid	-6960
igaw	-6961
igur	-6962
ihil	-6963
ikli	-6964
inom	-6965
into	-6966
ipit	-6967
iral	-6968
iraq	-6969
irty	-6970
ites	-6971
kara	-6972
laki	-6973
last	-6974
leta	-6975
main	-6976
mali	-6977
mful	-6978
onyt	-6979
ores	-6980
orte	-6981
otoo	-6982
pher	-6983
resa	-6984
rete	-6985
rush	-6986
sada	-6987
size	-6988
star	-6989
tain	-6990
that	-6991
ubad	-6992
ubay	-6993
udge	-6994
ugma	-6995
ukas	-6996
ukin	-6997
uksa	-6998
ukuy	-6999
6,	-7000
aho	-7001
cts	-7002
eon	-7003
irm	-7004
kin	-7005
tap	-7006
tok	-7007
uti	-7008
vey	-7009
▁ya	-7010
agam	-7011
ahol	-7012
arly	-7013
enon	-7014
help	-7015
ibla	-7016
iman	-7017
osis	-7018
otos	-7019
rove	-7020
unay	-7021
utes	-7022
wahe	-7023
weet	-7024
yeah	-7025
ylum	-7026
yoba	-7027
yung	-7028
▁13-	-7029
▁ack	-7030
▁aim	-7031
▁arm	-7032
▁awk	-7033
▁bub	-7034
▁civ	-7035
▁cow	-7036
▁dry	-7037
▁ens	-7038
▁esc	-7039
▁gus	-7040
▁hos	-7041
▁isp	-7042
▁jan	-7043
▁jok	-7044
▁jol	-7045
▁kuk	-7046
▁lag	-7047
▁lam	-7048
▁lon	-7049
▁low	-7050
▁mum	-7051
▁obs	-7052
▁pec	-7053
▁piy	-7054
▁pra	-7055
▁sir	-7056
▁suk	-7057
▁tow	-7058
▁tse	-7059
▁uli	-7060
▁unp	-7061
▁unw	-7062
▁van	-7063
99.50	-7064
aanim	-7065
acles	-7066
adays	-7067
ahasa	-7068
aktis	-7069
alake	-7070
alayo	-7071
aloob	-7072
alukt	-7073
angko	-7074
antay	-7075
arami	-7076
arili	-7077
asaya	-7078
aseng	-7079
aster	-7080
athon	-7081
atibo	-7082
atsat	-7083
atula	-7084
bakit	-7085
books	-7086
clock	-7087
cript	-7088
diyos	-7089
eated	-7090
edins	-7091
embro	-7092
ernes	-7093
ffers	-7094
gabal	-7095
group	-7096
ibili	-7097
icide	-7098
ilyar	-7099
qa	-7100
zy	-7101
bus	-7102
cat	-7103
elm	-7104
gae	-7105
ica	-7106
lig	-7107
nut	-7108
rad	-7109
rum	-7110
ulu	-7111
wag	-7112
yum	-7113
zen	-7114
▁iq	-7115
abul	-7116
apro	-7117
drop	-7118
esus	-7119
free	-7120
give	-7121
gong	-7122
igro	-7123
ikap	-7124
ikit	-7125
izes	-7126
ugis	-7127
ukol	-7128
used	-7129
▁daw	-7130
▁ded	-7131
▁fil	-7132
▁gap	-7133
▁hit	-7134
▁kut	-7135
▁mun	-7136
▁ton	-7137
ayain	-7138
elong	-7139
icted	-7140
imang	-7141
imbit	-7142
imina	-7143
inaan	-7144
inaas	-7145
inach	-7146
inity	-7147
ipagt	-7148
iphan	-7149
iraso	-7150
isita	-7151
istig	-7152
itary	-7153
iters	-7154
itled	-7155
iyahe	-7156
ksyon	-7157
laban	-7158
licit	-7159
neath	-7160
negos	-7161
nific	-7162
ograp	-7163
ologo	-7164
oobin	-7165
ooled	-7166
orist	-7167
orter	-7168
owing	-7169
rates	-7170
riage	-7171
roach	-7172
shirt	-7173
sider	-7174
sized	-7175
stant	-7176
super	-7177
tunog	-7178
ubaya	-7179
ughaw	-7180
ugtog	-7181
uklod	-7182
ulaan	-7183
uliar	-7184
umput	-7185
usisa	-7186
uwaan	-7187
water	-7188
xiety	-7189
▁alal	-7190
▁alle	-7191
▁anti	-7192
▁asuk	-7193
▁bale	-7194
▁ball	-7195
▁bibl	-7196
▁bicy	-7197
▁bikt	-7198
▁bing	-7199
2,	-7200
akl	-7201
aku	-7202
asy	-7203
cha	-7204
hen	-7205
igo	-7206
kap	-7207
may	-7208
rit	-7209
sci	-7210
uff	-7211
aril	-7212
asin	-7213
ayat	-7214
hood	-7215
ibay	-7216
imaw	-7217
miss	-7218
naku	-7219
oppy	-7220
play	-7221
ulak	-7222
verb	-7223
wise	-7224
▁bid	-7225
▁gal	-7226
▁hor	-7227
▁huk	-7228
▁miy	-7229
▁pig	-7230
▁sop	-7231
▁sym	-7232
▁yak	-7233
ablan	-7234
alism	-7235
asiya	-7236
bayan	-7237
brero	-7238
ights	-7239
leyus	-7240
oming	-7241
right	-7242
untik	-7243
veral	-7244
▁bags	-7245
▁busy	-7246
▁buti	-7247
▁cand	-7248
▁capt	-7249
▁cats	-7250
▁clar	-7251
▁clus	-7252
▁cong	-7253
▁core	-7254
▁corr	-7255
▁damo	-7256
▁decl	-7257
▁dest	-7258
▁died	-7259
▁dood	-7260
▁doom	-7261
▁dump	-7262
▁dyos	-7263
▁emer	-7264
▁evil	-7265
▁evol	-7266
▁exch	-7267
▁fell	-7268
▁frag	-7269
▁garb	-7270
▁gate	-7271
▁glim	-7272
▁glob	-7273
▁grat	-7274
▁grid	-7275
▁guit	-7276
▁gulf	-7277
▁guts	-7278
▁hadn	-7279
▁hasn	-7280
▁hate	-7281
▁hide	-7282
▁hind	-7283
▁hits	-7284
▁hung	-7285
▁husb	-7286
▁info	-7287
▁iron	-7288
▁isda	-7289
▁iwan	-7290
▁iyun	-7291
▁jack	-7292
▁jeho	-7293
▁juan	-7294
▁kape	-7295
▁kasi	-7296
▁kauk	-7297
▁kole	-7298
▁kurt	-7299
ev	-7300
ela	-7301
lan	-7302
tar	-7303
▁mg	-7304
▁ot	-7305
ader	-7306
ient	-7307
itap	-7308
kaya	-7309
uals	-7310
utas	-7311
uyan	-7312
▁bed	-7313
▁cab	-7314
▁cup	-7315
▁sel	-7316
icism	-7317
oting	-7318
using	-7319
▁labs	-7320
▁laro	-7321
▁laws	-7322
▁liar	-7323
▁link	-7324
▁loko	-7325
▁mala	-7326
▁male	-7327
▁manh	-7328
▁mart	-7329
▁mira	-7330
▁mons	-7331
▁myst	-7332
▁naga	-7333
▁nail	-7334
▁naip	-7335
▁none	-7336
▁paar	-7337
▁pack	-7338
▁pain	-7339
▁pans	-7340
▁prev	-7341
▁prim	-7342
▁pula	-7343
▁remo	-7344
▁rock	-7345
▁rout	-7346
▁ruth	-7347
▁save	-7348
▁size	-7349
▁skin	-7350
▁solo	-7351
▁song	-7352
▁soph	-7353
▁soul	-7354
▁surv	-7355
▁tape	-7356
▁tele	-7357
▁tina	-7358
▁tiny	-7359
▁tipo	-7360
▁tons	-7361
▁tunt	-7362
▁ulat	-7363
▁unit	-7364
▁user	-7365
▁uses	-7366
▁usis	-7367
▁virt	-7368
▁wear	-7369
▁wife	-7370
▁yata	-7371
▁zero	-7372
aandar	-7373
abaliw	-7374
abawas	-7375
abayan	-7376
abutin	-7377
ahanay	-7378
ahanin	-7379
akadem	-7380
aktura	-7381
alakan	-7382
alawak	-7383
alayan	-7384
alismo	-7385
alitan	-7386
amalas	-7387
amples	-7388
antabi	-7389
antong	-7390
apatay	-7391
apitan	-7392
aporma	-7393
aposod	-7394
arawan	-7395
ashcan	-7396
aslang	-7397
athala	-7398
athers	-7399
atilyo	-7400
ayaang	-7401
ayagan	-7402
ayanan	-7403
belief	-7404
contin	-7405
egorya	-7406
ektris	-7407
ellent	-7408
ending	-7409
endous	-7410
ertips	-7411
esters	-7412
hiyang	-7413
ihalub	-7414
ikayat	-7415
ikular	-7416
ikulum	-7417
ilabot	-7418
ilayan	-7419
iliman	-7420
ilinis	-7421
ilipat	-7422
ilitaw	-7423
ilosop	-7424
imento	-7425
impala	-7426
isista	-7427
itched	-7428
iyahan	-7429
lessly	-7430
ointed	-7431
omenon	-7432
online	-7433
orders	-7434
orkers	-7435
ported	-7436
rength	-7437
rocery	-7438
samang	-7439
stance	-7440
stract	-7441
ternal	-7442
uction	-7443
uguhit	-7444
uhunan	-7445
ukuyin	-7446
ulitin	-7447
ultura	-7448
unwari	-7449
urally	-7450
utunan	-7451
vision	-7452
▁aalis	-7453
▁aboga	-7454
▁accom	-7455
▁actor	-7456
▁added	-7457
▁adopt	-7458
▁algae	-7459
▁aling	-7460
▁analy	-7461
▁anger	-7462
▁argue	-7463
▁argum	-7464
▁assig	-7465
▁avail	-7466
▁award	-7467
▁awtor	-7468
▁baked	-7469
▁banta	-7470
▁barre	-7471
▁basis	-7472
▁batas	-7473
▁bilis	-7474
▁bingo	-7475
▁bubuk	-7476
▁bumuo	-7477
▁burqa	-7478
▁calam	-7479
▁carry	-7480
▁check	-7481
▁cheek	-7482
▁clack	-7483
▁clock	-7484
▁cloth	-7485
▁cloud	-7486
▁colle	-7487
▁conce	-7488
▁costs	-7489
▁court	-7490
▁crack	-7491
▁crazy	-7492
▁daily	-7493
▁datap	-7494
▁david	-7495
▁defin	-7496
▁deter	-7497
▁dirty	-7498
▁distr	-7499
▁dokum	-7500
▁drama	-7501
▁eaten	-7502
▁ended	-7503
▁enero	-7504
▁error	-7505
▁estim	-7506
▁exhib	-7507
▁false	-7508
▁flash	-7509
▁folks	-7510
▁funny	-7511
▁galak	-7512
▁ganto	-7513
▁gehry	-7514
▁gilid	-7515
▁ginoo	-7516
▁grado	-7517
▁gradu	-7518
▁greek	-7519
▁gulay	-7520
▁gumag	-7521
▁hears	-7522
▁heavy	-7523
▁hibla	-7524
▁humor	-7525
▁husay	-7526
▁iilan	-7527
▁iiwan	-7528
▁impul	-7529
▁indic	-7530
▁inher	-7531
▁initi	-7532
▁inner	-7533
▁jolly	-7534
▁journ	-7535
▁katiw	-7536
▁kayum	-7537
▁keeps	-7538
▁kinal	-7539
▁klima	-7540
▁kumik	-7541
▁kumuk	-7542
▁kunin	-7543
▁laban	-7544
▁labis	-7545
▁lakes	-7546
▁lanka	-7547
▁layon	-7548
▁lihim	-7549
▁likes	-7550
▁logic	-7551
▁loved	-7552
▁lower	-7553
▁malub	-7554
▁mapan	-7555
▁marar	-7556
▁masis	-7557
▁meant	-7558
▁medes	-7559
▁nabuo	-7560
▁nakam	-7561
▁nakik	-7562
▁names	-7563
▁napat	-7564
▁nasis	-7565
▁offer	-7566
▁pages	-7567
▁pangh	-7568
▁parts	-7569
▁pasko	-7570
▁peaks	-7571
▁pilit	-7572
▁pinup	-7573
▁plaka	-7574
▁plano	-7575
▁ponyt	-7576
▁price	-7577
▁prove	-7578
▁pulls	-7579
▁punta	-7580
▁pusit	-7581
▁quiet	-7582
▁radio	-7583
▁rebel	-7584
▁relat	-7585
▁remix	-7586
▁revel	-7587
▁risgo	-7588
▁risks	-7589
▁rocks	-7590
▁scale	-7591
▁schem	-7592
▁seeds	-7593
▁south	-7594
▁spain	-7595
▁steal	-7596
▁tatan	-7597
▁texts	-7598
▁thick	-7599
▁total	-7600
▁tugma	-7601
▁udyok	-7602
▁union	-7603
▁upper	-7604
▁utang	-7605
▁veget	-7606
▁viral	-7607
▁wakas	-7608
▁walks	-7609
▁waste	-7610
▁whose	-7611
▁worst	-7612
▁yield	-7613
adagdag	-7614
agpasan	-7615
ahangad	-7616
akitang	-7617
alataya	-7618
aluktot	-7619
ansanan	-7620
atiling	-7621
atingin	-7622
ayabong	-7623
decrypt	-7624
derness	-7625
edinsya	-7626
entaryo	-7627
ibility	-7628
ificant	-7629
imagine	-7630
iritong	-7631
itingin	-7632
ivities	-7633
iyosong	-7634
kalahat	-7635
nanakaw	-7636
nowable	-7637
opossum	-7638
oration	-7639
project	-7640
repower	-7641
station	-7642
ubukang	-7643
ugalian	-7644
uluhang	-7645
umanhin	-7646
▁acknow	-7647
▁acting	-7648
▁advert	-7649
▁andyan	-7650
▁aprika	-7651
▁asukal	-7652
▁asylum	-7653
▁attack	-7654
▁bangko	-7655
▁bantog	-7656
▁barely	-7657
▁batter	-7658
▁belong	-7659
▁bihira	-7660
▁borrow	-7661
▁bucket	-7662
▁bughaw	-7663
▁buksan	-7664
▁camera	-7665
▁coffee	-7666
▁common	-7667
▁compon	-7668
▁crisis	-7669
▁dances	-7670
▁deaths	-7671
▁decree	-7672
▁deeply	-7673
▁dekada	-7674
▁deklar	-7675
▁desire	-7676
▁disket	-7677
▁doomed	-7678
▁driven	-7679
▁ekspek	-7680
▁embark	-7681
▁encoun	-7682
▁engage	-7683
▁eskwel	-7684
▁factor	-7685
▁faiths	-7686
▁famous	-7687
▁female	-7688
▁floppy	-7689
▁flying	-7690
▁forest	-7691
▁fortun	-7692
▁fought	-7693
▁fright	-7694
▁frosty	-7695
▁frozen	-7696
▁gather	-7697
▁gitara	-7698
▁gotten	-7699
▁groups	-7700
▁gumana	-7701
▁hetong	-7702
▁heyoba	-7703
▁hulaan	-7704
▁humans	-7705
▁humble	-7706
▁ilahad	-7707
▁inalip	-7708
▁indoor	-7709
▁infect	-7710
▁introd	-7711
▁isinas	-7712
▁itinat	-7713
▁kasali	-7714
▁kasapi	-7715
▁kasing	-7716
▁kataka	-7717
▁kidney	-7718
▁killed	-7719
▁kitten	-7720
▁kusang	-7721
▁kuting	-7722
▁ladies	-7723
▁lalake	-7724
▁landas	-7725
▁lately	-7726
▁lauren	-7727
▁lawyer	-7728
▁levels	-7729
▁lights	-7730
▁lonely	-7731
▁mababa	-7732
▁mabigo	-7733
▁magkat	-7734
▁magpak	-7735
▁mahaba	-7736
▁mahuli	-7737
▁maisas	-7738
▁mamaya	-7739
▁mapagp	-7740
▁medium	-7741
▁mental	-7742
▁modest	-7743
▁mostly	-7744
▁multim	-7745
▁nahuli	-7746
▁napapa	-7747
▁nasabi	-7748
▁nawala	-7749
▁nearly	-7750
▁ninais	-7751
▁obsess	-7752
▁oxygen	-7753
▁paghah	-7754
▁pagkal	-7755
▁paints	-7756
▁pangit	-7757
▁pantay	-7758
▁parody	-7759
▁paulit	-7760
▁paying	-7761
▁period	-7762
▁persia	-7763
▁photos	-7764
▁pinili	-7765
▁piyesa	-7766
▁plants	-7767
▁played	-7768
▁presyo	-7769
▁punong	-7770
▁pwersa	-7771
▁rarely	-7772
▁recent	-7773
▁reconc	-7774
▁reduce	-7775
▁remain	-7776
▁reward	-7777
▁sakali	-7778
▁savant	-7779
▁sector	-7780
▁seemed	-7781
▁sinira	-7782
▁slides	-7783
▁studio	-7784
▁sumang	-7785
▁sumuko	-7786
▁tanyag	-7787
▁threat	-7788
▁ticket	-7789
▁tracks	-7790
▁trends	-7791
▁tuktok	-7792
▁tulong	-7793
▁unlike	-7794
▁viewed	-7795
▁voices	-7796
▁walked	-7797
▁winner	-7798
▁winter	-7799
▁wisdom	-7800
alakayan	-7801
anggalin	-7802
apatakbo	-7803
ashioned	-7804
entional	-7805
fortable	-7806
nificent	-7807
ugnayang	-7808
ukumpara	-7809
▁aabutin	-7810
▁advance	-7811
▁amongst	-7812
▁angking	-7813
▁anxiety	-7814
▁awkward	-7815
▁bawasan	-7816
▁bayaran	-7817
▁bibliya	-7818
▁bicycle	-7819
▁bidyong	-7820
▁biktima	-7821
▁binabad	-7822
▁binigay	-7823
▁biology	-7824
▁burning	-7825
▁calling	-7826
▁chances	-7827
▁citizen	-7828
▁closely	-7829
▁colombo	-7830
▁committ	-7831
▁consult	-7832
▁contact	-7833
▁contemp	-7834
▁content	-7835
▁courage	-7836
▁created	-7837
▁crucial	-7838
▁curious	-7839
▁dayuhan	-7840
▁decides	-7841
▁delight	-7842
▁demagog	-7843
▁describ	-7844
▁devices	-7845
▁display	-7846
▁driving	-7847
▁ecology	-7848
▁ehemplo	-7849
▁elected	-7850
▁espanya	-7851
▁essence	-7852
▁experts	-7853
▁farmers	-7854
▁figured	-7855
▁fingers	-7856
▁forever	-7857
▁frankly	-7858
▁ganoong	-7859
▁garbage	-7860
▁germany	-7861
▁greater	-7862
▁grupong	-7863
▁gumalaw	-7864
▁gustung	-7865
▁halimaw	-7866
▁hangang	-7867
▁harapan	-7868
▁harmful	-7869
▁iceberg	-7870
▁ikaanim	-7871
▁indibid	-7872
▁insects	-7873
▁insekto	-7874
▁isaayos	-7875
▁isulong	-7876
▁itanong	-7877
▁january	-7878
▁jehovah	-7879
▁kabilis	-7880
▁kalsada	-7881
▁kalungk	-7882
▁kapagka	-7883
▁kapatid	-7884
▁kasunod	-7885
▁komplik	-7886
▁kunting	-7887
▁labanan	-7888
▁leading	-7889
▁likuran	-7890
▁lumipas	-7891
▁machine	-7892
▁magamit	-7893
▁maglaro	-7894
▁magsabi	-7895
▁magsuot	-7896
▁maitago	-7897
▁maliban	-7898
▁mamuhay	-7899
▁managed	-7900
▁masters	-7901
▁matakot	-7902
▁measure	-7903
▁monster	-7904
▁mothers	-7905
▁nagdala	-7906
▁nakabuo	-7907
▁nangung	-7908
▁natapos	-7909
▁neutron	-7910
▁nilikha	-7911
▁nyutron	-7912
▁officer	-7913
▁orderly	-7914
▁organiz	-7915
▁ospital	-7916
▁pagpili	-7917
▁pahayag	-7918
▁pangmat	-7919
▁papasok	-7920
▁pebrero	-7921
▁peligro	-7922
▁physics	-7923
▁pinagka	-7924
▁pinapag	-7925
▁players	-7926
▁praktis	-7927
▁pretend	-7928
▁proverb	-7929
▁related	-7930
▁release	-7931
▁require	-7932
▁sagabal	-7933
▁several	-7934
▁shepher	-7935
▁shorter	-7936
▁shouldn	-7937
▁simbolo	-7938
▁sinasab	-7939
▁speaker	-7940
▁spinach	-7941
▁statist	-7942
▁streets	-7943
▁suicide	-7944
▁sumayaw	-7945
▁sumikat	-7946
▁syempre	-7947
▁tahanan	-7948
▁taliwas	-7949
▁	-7950
a	-7951
n	-7952
i	-7953
t	-7954
e	-7955
o	-7956
g	-7957
s	-7958
l	-7959
r	-7960
h	-7961
m	-7962
u	-7963
y	-7964
k	-7965
d	-7966
p	-7967
b	-7968
w	-7969
c	-7970
.	-7971
,	-7972
f	-7973
v	-7974
-	-7975
'	-7976
"	-7977
(	-7978
)	-7979
?	-7980
0	-7981
j	-7982
x	-7983
:	-7984
1	-7985
z	-7986
q	-7987
2	-7988
9	-7989
5	-7990
3	-7991
6	-7992
;	-7993
!	-7994
4	-7995
